{
  "version": "1.0",
  "truncation": null,
  "padding": {
    "strategy": "BatchLongest",
    "direction": "Right",
    "pad_to_multiple_of": null,
    "pad_id": 1,
    "pad_type_id": 0,
    "pad_token": "<|pad|>"
  },
  "added_tokens": [
    {
      "id": 0,
      "content": "<|endoftext|>",
      "single_word": false,
      "lstrip": false,
      "rstrip": false,
      "normalized": false,
      "special": true
    },
    {
      "id": 1,
      "content": "<|pad|>",
      "single_word": false,
      "lstrip": false,
      "rstrip": false,
      "normalized": false,
      "special": true
    }
  ],
  "normalizer": {
    "type": "NFKC"
  },
  "pre_tokenizer": {
    "type": "ByteLevel",
    "add_prefix_space": false,
    "trim_offsets": true,
    "use_regex": true
  },
  "post_processor": null,
  "decoder": {
    "type": "ByteLevel",
    "add_prefix_space": true,
    "trim_offsets": true,
    "use_regex": true
  },
  "model": {
    "type": "BPE",
    "dropout": null,
    "unk_token": "<|endoftext|>",
    "continuing_subword_prefix": null,
    "end_of_word_suffix": null,
    "fuse_unk": false,
    "byte_fallback": false,
    "ignore_merges": false,
    "vocab": {
      "<|endoftext|>": 0,
      "<|pad|>": 1,
      "!": 2,
      "\"": 3,
      "&": 4,
      "'": 5,
      "(": 6,
      ")": 7,
      "*": 8,
      "+": 9,
      ",": 10,
      "-": 11,
      ".": 12,
      "/": 13,
      "0": 14,
      "1": 15,
      "2": 16,
      "3": 17,
      "4": 18,
      "5": 19,
      "6": 20,
      "7": 21,
      "8": 22,
      "9": 23,
      ":": 24,
      ";": 25,
      "?": 26,
      "@": 27,
      "A": 28,
      "B": 29,
      "C": 30,
      "D": 31,
      "E": 32,
      "F": 33,
      "G": 34,
      "H": 35,
      "I": 36,
      "J": 37,
      "K": 38,
      "L": 39,
      "M": 40,
      "N": 41,
      "O": 42,
      "P": 43,
      "Q": 44,
      "R": 45,
      "S": 46,
      "T": 47,
      "U": 48,
      "V": 49,
      "W": 50,
      "X": 51,
      "Y": 52,
      "Z": 53,
      "[": 54,
      "]": 55,
      "_": 56,
      "a": 57,
      "b": 58,
      "c": 59,
      "d": 60,
      "e": 61,
      "f": 62,
      "g": 63,
      "h": 64,
      "i": 65,
      "j": 66,
      "k": 67,
      "l": 68,
      "m": 69,
      "n": 70,
      "o": 71,
      "p": 72,
      "q": 73,
      "r": 74,
      "s": 75,
      "t": 76,
      "u": 77,
      "v": 78,
      "w": 79,
      "x": 80,
      "y": 81,
      "z": 82,
      "|": 83,
      "}": 84,
      "¢": 85,
      "£": 86,
      "¤": 87,
      "¦": 88,
      "§": 89,
      "¨": 90,
      "©": 91,
      "ª": 92,
      "®": 93,
      "¯": 94,
      "°": 95,
      "´": 96,
      "¸": 97,
      "¹": 98,
      "»": 99,
      "¼": 100,
      "Â": 101,
      "Ã": 102,
      "Å": 103,
      "Ì": 104,
      "â": 105,
      "Ċ": 106,
      "Ġ": 107,
      "Ģ": 108,
      "ģ": 109,
      "Ĥ": 110,
      "Ī": 111,
      "ī": 112,
      "Ĵ": 113,
      "ĵ": 114,
      "Ķ": 115,
      "ĺ": 116,
      "Ļ": 117,
      "ľ": 118,
      "Ŀ": 119,
      "ł": 120,
      "Ġt": 121,
      "he": 122,
      "Ġa": 123,
      "in": 124,
      "Ġs": 125,
      "Ġthe": 126,
      "re": 127,
      "Ġw": 128,
      "Ġo": 129,
      "ha": 130,
      "ou": 131,
      "nd": 132,
      "er": 133,
      "it": 134,
      "Ġm": 135,
      "is": 136,
      "Ġb": 137,
      "en": 138,
      "ed": 139,
      "Ġc": 140,
      "ing": 141,
      "Ġf": 142,
      "or": 143,
      "on": 144,
      "es": 145,
      "Ġd": 146,
      "Ġof": 147,
      "Ġand": 148,
      "Ġto": 149,
      "ll": 150,
      "âĢ": 151,
      "Ġl": 152,
      "as": 153,
      "ar": 154,
      "an": 155,
      "Ġp": 156,
      "ĠI": 157,
      "Ġn": 158,
      "Ġin": 159,
      "hat": 160,
      "Ġh": 161,
      "om": 162,
      "Ġha": 163,
      "at": 164,
      "le": 165,
      "Ġhe": 166,
      "ow": 167,
      "Ġg": 168,
      "ve": 169,
      "Ġbe": 170,
      "ly": 171,
      "Ġy": 172,
      "ot": 173,
      "ld": 174,
      "se": 175,
      "ic": 176,
      "ut": 177,
      "st": 178,
      "Ġyou": 179,
      "Ġthat": 180,
      "Ġe": 181,
      "im": 182,
      "Ġit": 183,
      "gh": 184,
      "Ġon": 185,
      "al": 186,
      "ver": 187,
      "Ġwas": 188,
      "id": 189,
      "Ġth": 190,
      "ay": 191,
      "ent": 192,
      "Ġis": 193,
      "et": 194,
      "ce": 195,
      "âĢĻ": 196,
      "ri": 197,
      "Ġre": 198,
      "ad": 199,
      "ĠT": 200,
      "Ġu": 201,
      "ion": 202,
      "ro": 203,
      "ir": 204,
      "ght": 205,
      "Ġhad": 206,
      "ith": 207,
      "Ġwh": 208,
      "Ġfor": 209,
      "ur": 210,
      "Ġst": 211,
      "Ġan": 212,
      "ere": 213,
      "Ġas": 214,
      "ĠA": 215,
      "Ġhis": 216,
      "ĠĠ": 217,
      "ter": 218,
      "Ġnot": 219,
      "ER": 220,
      "am": 221,
      "ac": 222,
      "ĠH": 223,
      "ĠC": 224,
      "Ġwith": 225,
      "oo": 226,
      "Ġat": 227,
      "ould": 228,
      "âĢľ": 229,
      "ĠW": 230,
      "th": 231,
      "Ġme": 232,
      "âĢĿ": 233,
      "il": 234,
      "qu": 235,
      "if": 236,
      "ill": 237,
      "Ġse": 238,
      "and": 239,
      "ke": 240,
      "all": 241,
      "the": 242,
      "ĠThe": 243,
      "Ġde": 244,
      "ain": 245,
      "ous": 246,
      "ĠM": 247,
      "ul": 248,
      "ome": 249,
      "Ġhave": 250,
      "ge": 251,
      "ch": 252,
      "Ġr": 253,
      "Ġhim": 254,
      "ĠS": 255,
      "ess": 256,
      "Ġso": 257,
      "Ġv": 258,
      "ct": 259,
      "ight": 260,
      "ell": 261,
      "Ġfr": 262,
      "ĠG": 263,
      "Ġsu": 264,
      "ĠL": 265,
      "Ġk": 266,
      "ble": 267,
      "Ġmy": 268,
      "est": 269,
      "Ġall": 270,
      "ore": 271,
      "ĠB": 272,
      "Ġne": 273,
      "pe": 274,
      "ĠD": 275,
      "ard": 276,
      "Ġone": 277,
      "very": 278,
      "OR": 279,
      "out": 280,
      "Ġdo": 281,
      "Ġher": 282,
      "em": 283,
      "ol": 284,
      "Ġli": 285,
      "ust": 286,
      "Ġqu": 287,
      "ra": 288,
      "her": 289,
      "us": 290,
      ".]": 291,
      "Ġare": 292,
      "Ġsa": 293,
      "ry": 294,
      "ant": 295,
      "Ġfrom": 296,
      "un": 297,
      "our": 298,
      "Ġab": 299,
      "pp": 300,
      "Ġ_": 301,
      "ind": 302,
      "ich": 303,
      "Ġsh": 304,
      "to": 305,
      "el": 306,
      "Ġno": 307,
      "ĠIt": 308,
      "Ġbut": 309,
      "Ġkn": 310,
      "ure": 311,
      "ĠO": 312,
      "ist": 313,
      "hen": 314,
      "ss": 315,
      "Ġwho": 316,
      "Ġam": 317,
      "um": 318,
      "Ġwere": 319,
      "ound": 320,
      "Ġby": 321,
      "ĠY": 322,
      "han": 323,
      "ĠĠĠĠ": 324,
      "own": 325,
      "Ġor": 326,
      "ite": 327,
      "Ġun": 328,
      "ook": 329,
      "Ġthey": 330,
      "ood": 331,
      "one": 332,
      "Ġle": 333,
      "lf": 334,
      "Ġex": 335,
      "Ġal": 336,
      "ord": 337,
      "ast": 338,
      "Ġwhat": 339,
      "IN": 340,
      "ough": 341,
      ".âĢĿ": 342,
      "ers": 343,
      "hing": 344,
      "ĠN": 345,
      "[_": 346,
      "ĠP": 347,
      "Ġwhich": 348,
      "are": 349,
      "Ġman": 350,
      "Ġout": 351,
      "ation": 352,
      "Ġ.": 353,
      "Ġwould": 354,
      "ack": 355,
      "Ġbeen": 356,
      "way": 357,
      "ame": 358,
      "ORD": 359,
      "ĠHe": 360,
      "Ġup": 361,
      "ak": 362,
      "ĠR": 363,
      "Ġgo": 364,
      "ife": 365,
      "'s": 366,
      "ci": 367,
      "IL": 368,
      "Ġany": 369,
      "Ġthere": 370,
      "ven": 371,
      "Ġthing": 372,
      "ond": 373,
      "ig": 374,
      "pt": 375,
      "Ġcon": 376,
      "lo": 377,
      "Ġsome": 378,
      "ity": 379,
      "ong": 380,
      "hed": 381,
      "ate": 382,
      "ie": 383,
      "ered": 384,
      "_.]": 385,
      "ive": 386,
      "ERN": 387,
      "LORD": 388,
      "itt": 389,
      "ĠCH": 390,
      "Ġabout": 391,
      "ĠâĢľ": 392,
      "ost": 393,
      "ide": 394,
      "ally": 395,
      "reat": 396,
      "ĠE": 397,
      "Ġthis": 398,
      "Ġ[_": 399,
      "Ġthem": 400,
      "Ġvery": 401,
      "Ġj": 402,
      "Ġshe": 403,
      "Ġyour": 404,
      "ink": 405,
      "Ġlike": 406,
      "au": 407,
      "ag": 408,
      "ian": 409,
      "self": 410,
      "Ġknow": 411,
      "ck": 412,
      "Ġsaid": 413,
      "Ã©": 414,
      "ĠYou": 415,
      "art": 416,
      "--": 417,
      "op": 418,
      "ert": 419,
      "Ġhas": 420,
      "Ġaf": 421,
      "AD": 422,
      "ove": 423,
      "The": 424,
      "Ġpl": 425,
      "ace": 426,
      "Ġwor": 427,
      "Ġcom": 428,
      ",âĢĿ": 429,
      "Ġcan": 430,
      "od": 431,
      "ne": 432,
      "Ġcould": 433,
      "ire": 434,
      "Ġwill": 435,
      "Ġro": 436,
      "Ġar": 437,
      "ass": 438,
      "Ġwe": 439,
      "of": 440,
      "Ġfe": 441,
      "ort": 442,
      "Ġwhen": 443,
      "ADY": 444,
      "Ġlook": 445,
      "ĠJ": 446,
      "Ġsp": 447,
      "ran": 448,
      "âĢĶ": 449,
      "thing": 450,
      "age": 451,
      "able": 452,
      "Ġgr": 453,
      "Ġpo": 454,
      "ish": 455,
      "ose": 456,
      "ful": 457,
      "ud": 458,
      "Ġsha": 459,
      "Ġnow": 460,
      "LADY": 461,
      "Ġtheir": 462,
      "Ġlife": 463,
      "bl": 464,
      "Ġinto": 465,
      "Ġtr": 466,
      "Ġpe": 467,
      "ime": 468,
      "nt": 469,
      "Ġag": 470,
      "Ġmore": 471,
      "Ġdon": 472,
      "ought": 473,
      "Ġpro": 474,
      "TERN": 475,
      "..": 476,
      "ect": 477,
      "ILTERN": 478,
      "ep": 479,
      "Ġbr": 480,
      "ĠCHILTERN": 481,
      "Ġmust": 482,
      "Ġonly": 483,
      "ĠF": 484,
      "Ġnever": 485,
      "ittle": 486,
      "ence": 487,
      "end": 488,
      "red": 489,
      "Ġseem": 490,
      "ake": 491,
      "Ġim": 492,
      "omet": 493,
      "ING": 494,
      "Ġif": 495,
      "ab": 496,
      "Ġmad": 497,
      "alk": 498,
      "LE": 499,
      "Ġsay": 500,
      "ice": 501,
      "ved": 502,
      "ON": 503,
      "Ġthink": 504,
      "ng": 505,
      "Ġthan": 506,
      "ue": 507,
      "wn": 508,
      "me": 509,
      "uch": 510,
      "Ġover": 511,
      "ther": 512,
      "Ġgreat": 513,
      "ĠWhat": 514,
      "ĠMr": 515,
      "ap": 516,
      "ars": 517,
      "ried": 518,
      "hi": 519,
      "ady": 520,
      "orian": 521,
      "Ġus": 522,
      "ies": 523,
      "Ġbl": 524,
      "ark": 525,
      "right": 526,
      "Ġtoo": 527,
      "Ġits": 528,
      "ĠBut": 529,
      "Ġdown": 530,
      "pl": 531,
      "Ġcome": 532,
      "Ġshould": 533,
      "Ġpr": 534,
      "be": 535,
      "ine": 536,
      "ves": 537,
      "here": 538,
      "Ġdid": 539,
      "Ġdre": 540,
      "ouse": 541,
      "Ġpre": 542,
      "Ġdes": 543,
      "Ġlittle": 544,
      "Ġsee": 545,
      "Ġac": 546,
      "Ġafter": 547,
      "Ġsc": 548,
      "RS": 549,
      "fore": 550,
      "Ġquite": 551,
      "ps": 552,
      "ORING": 553,
      "ways": 554,
      "MER": 555,
      "Ġdis": 556,
      "ĠGORING": 557,
      "Ġmen": 558,
      "Ġfl": 559,
      "os": 560,
      "Ġtime": 561,
      "oy": 562,
      "other": 563,
      "ving": 564,
      "har": 565,
      "Ġsomet": 566,
      "urn": 567,
      "CK": 568,
      "Ġter": 569,
      "ĠLord": 570,
      "MERE": 571,
      "Ġback": 572,
      "ERMERE": 573,
      "ment": 574,
      "Ġother": 575,
      "IND": 576,
      "INDERMERE": 577,
      "Ġen": 578,
      "ĠWINDERMERE": 579,
      "ance": 580,
      "ward": 581,
      "ather": 582,
      "Ġmuch": 583,
      "ary": 584,
      "ious": 585,
      "Ġagain": 586,
      "mm": 587,
      "Ġday": 588,
      "orn": 589,
      "int": 590,
      "Ġevery": 591,
      "ople": 592,
      "ĠThey": 593,
      "that": 594,
      "orr": 595,
      "MRS": 596,
      "Ġalways": 597,
      "ath": 598,
      "ĠAnd": 599,
      "Ġtw": 600,
      "ff": 601,
      "Ġlove": 602,
      "ĠDorian": 603,
      "ew": 604,
      "ull": 605,
      "ions": 606,
      "Ġcl": 607,
      "ree": 608,
      "Ġper": 609,
      "de": 610,
      "ick": 611,
      "act": 612,
      "Ġthr": 613,
      "per": 614,
      "te": 615,
      "ened": 616,
      "less": 617,
      "Ġhand": 618,
      "we": 619,
      "Ġ*": 620,
      "Ġthings": 621,
      "range": 622,
      "Ġbefore": 623,
      "Ġwom": 624,
      "Ġeven": 625,
      "ness": 626,
      "Ġmade": 627,
      "nder": 628,
      "Ġseemed": 629,
      "ber": 630,
      "_.": 631,
      "ons": 632,
      "ACK": 633,
      "Ġnight": 634,
      "Ġcame": 635,
      "Ġgood": 636,
      "_,": 637,
      "Ġlong": 638,
      "ult": 639,
      "Ġold": 640,
      "ley": 641,
      "Ġtell": 642,
      "ret": 643,
      "Ġla": 644,
      "iss": 645,
      "oll": 646,
      "Ġthen": 647,
      "ans": 648,
      "not": 649,
      "?âĢĿ": 650,
      "ĠThere": 651,
      "AL": 652,
      "ount": 653,
      "ens": 654,
      "Ġown": 655,
      "Ġgl": 656,
      "by": 657,
      "li": 658,
      "Ġever": 659,
      "ĠAr": 660,
      "Ġaway": 661,
      "ĠV": 662,
      "Ġrem": 663,
      "NE": 664,
      "Ġmon": 665,
      "Ġbec": 666,
      "old": 667,
      "Ġspe": 668,
      "Ġworld": 669,
      "Ġpeople": 670,
      "Ġsomething": 671,
      "ray": 672,
      "Ġye": 673,
      "Ġsm": 674,
      "Ġad": 675,
      "rible": 676,
      "HA": 677,
      "ave": 678,
      "Ġtalk": 679,
      "Ġwell": 680,
      "Ġtold": 681,
      "Ġpass": 682,
      "ait": 683,
      "ft": 684,
      "Ġhow": 685,
      "hy": 686,
      "ied": 687,
      "Ġwr": 688,
      "ise": 689,
      "for": 690,
      "pre": 691,
      "oment": 692,
      "Ġbeg": 693,
      "Ġint": 694,
      "Ġthought": 695,
      "Ġch": 696,
      "Ġmar": 697,
      "Ġthrough": 698,
      "ĠĠĠĠĠĠ": 699,
      "ertain": 700,
      "Ġhouse": 701,
      "Ġmost": 702,
      "owed": 703,
      "ated": 704,
      "ater": 705,
      "his": 706,
      "Ġent": 707,
      "Ġnothing": 708,
      "Ġsuch": 709,
      "aut": 710,
      "ple": 711,
      "Ġwant": 712,
      "ings": 713,
      "Ġreally": 714,
      "ever": 715,
      "ical": 716,
      "og": 717,
      "EC": 718,
      "Ãī": 719,
      "wh": 720,
      "Ġey": 721,
      "che": 722,
      "enry": 723,
      "ach": 724,
      "Ġear": 725,
      "Ġdear": 726,
      "ock": 727,
      "Ġwond": 728,
      "Ġlet": 729,
      "Ġonce": 730,
      "Ġcr": 731,
      "IR": 732,
      "aint": 733,
      "AR": 734,
      "led": 735,
      "sw": 736,
      "ont": 737,
      "ile": 738,
      "was": 739,
      "iz": 740,
      "Ġstrange": 741,
      "ause": 742,
      "air": 743,
      "Ġmoment": 744,
      "It": 745,
      "Ġfar": 746,
      "atter": 747,
      "ĠShe": 748,
      "ible": 749,
      "ense": 750,
      "ows": 751,
      "ign": 752,
      "Ġshall": 753,
      "Ġpas": 754,
      "ĠRO": 755,
      "BER": 756,
      "Ġoff": 757,
      "ged": 758,
      "Ġwhere": 759,
      "Ġlast": 760,
      "BERT": 761,
      "light": 762,
      "ĠHenry": 763,
      "ild": 764,
      "Ġres": 765,
      "irst": 766,
      "Ġ...": 767,
      "ĠROBERT": 768,
      "Ġgre": 769,
      "Ġunder": 770,
      "Ġsaw": 771,
      "Ġart": 772,
      "ors": 773,
      "riend": 774,
      "Ġsec": 775,
      "ĠLady": 776,
      "ais": 777,
      "Ġcall": 778,
      "cl": 779,
      "ily": 780,
      "ince": 781,
      "ĠThat": 782,
      "hum": 783,
      "ern": 784,
      "Ġgoing": 785,
      "Ġhere": 786,
      "den": 787,
      "uri": 788,
      "Ġbet": 789,
      "JACK": 790,
      "ory": 791,
      "mmi": 792,
      "SIR": 793,
      "ared": 794,
      "ob": 795,
      "you": 796,
      "Ġhimself": 797,
      "ECIL": 798,
      "arry": 799,
      "ict": 800,
      "Ġroom": 801,
      "VE": 802,
      "ner": 803,
      "Ġque": 804,
      "had": 805,
      "br": 806,
      "Ġfound": 807,
      "Ġyoung": 808,
      "ĠIn": 809,
      "oth": 810,
      "Ġask": 811,
      "CECIL": 812,
      "ph": 813,
      "Ġke": 814,
      "ins": 815,
      "Ġcons": 816,
      "with": 817,
      "Ġthose": 818,
      "pect": 819,
      "LEY": 820,
      "EVE": 821,
      "Ġway": 822,
      "Ġthough": 823,
      "GERN": 824,
      "ase": 825,
      "Ġansw": 826,
      "EVELEY": 827,
      "GERNON": 828,
      "He": 829,
      "av": 830,
      "bur": 831,
      "ced": 832,
      "xt": 833,
      "ĠCHEVELEY": 834,
      "ALGERNON": 835,
      "Ġwonder": 836,
      "most": 837,
      "ody": 838,
      "co": 839,
      "Ġright": 840,
      "ourse": 841,
      "ale": 842,
      "Ġchar": 843,
      "Ġfriend": 844,
      "ĠAmmi": 845,
      "ĠMrs": 846,
      "sh": 847,
      "Ġwind": 848,
      "Ġjust": 849,
      "Ġtwo": 850,
      "ahum": 851,
      "oon": 852,
      "Ġpart": 853,
      "tern": 854,
      "Ġvo": 855,
      "Ġplace": 856,
      "Ġeyes": 857,
      "get": 858,
      "gr": 859,
      "Ġmay": 860,
      "ty": 861,
      "Ġ\"": 862,
      "fess": 863,
      "Ġget": 864,
      "ĠGray": 865,
      "ces": 866,
      "Ġtre": 867,
      "ang": 868,
      "fect": 869,
      "Ġmight": 870,
      "Ġanything": 871,
      "You": 872,
      "ail": 873,
      "ĠOh": 874,
      "Ġbel": 875,
      "Ġbeing": 876,
      "Ġwoman": 877,
      "ĠOn": 878,
      "EN": 879,
      "ling": 880,
      "ug": 881,
      "Ġcont": 882,
      "eley": 883,
      "ĠNahum": 884,
      "Ġdream": 885,
      "ched": 886,
      "Ġte": 887,
      "Ġupon": 888,
      "side": 889,
      "Ġour": 890,
      "Ġstill": 891,
      "ĠCh": 892,
      "Ġatt": 893,
      "Ġearth": 894,
      "'t": 895,
      "cri": 896,
      "Ġmake": 897,
      "oul": 898,
      "Ġdoor": 899,
      "Ġlooked": 900,
      "Ġfirst": 901,
      "night": 902,
      "erm": 903,
      "Ġcertain": 904,
      "Ġlo": 905,
      "cept": 906,
      "Ġreg": 907,
      "Ġboy": 908,
      "com": 909,
      "Ġsur": 910,
      "Ġcol": 911,
      "Ġple": 912,
      "ĠNo": 913,
      "ux": 914,
      "rom": 915,
      "Ġface": 916,
      "igh": 917,
      "Ġreal": 918,
      "ross": 919,
      "elt": 920,
      "ĠYes": 921,
      "Ġcomm": 922,
      "Ġhead": 923,
      "but": 924,
      "Ġround": 925,
      "ia": 926,
      "ual": 927,
      "Ġchan": 928,
      "Ġcried": 929,
      "Ġvis": 930,
      "Ġleft": 931,
      "Ġfeel": 932,
      "Ġkind": 933,
      "Ġabs": 934,
      "iv": 935,
      "land": 936,
      "Ġsil": 937,
      "str": 938,
      "Ġseen": 939,
      "Ġwent": 940,
      "Ġop": 941,
      "erv": 942,
      "Ġcourse": 943,
      "Ġform": 944,
      "Ġsub": 945,
      "HAM": 946,
      "RO": 947,
      "Ġet": 948,
      "arn": 949,
      "ations": 950,
      "ial": 951,
      "Ã¨": 952,
      "Ġhapp": 953,
      "Ġbeaut": 954,
      "imes": 955,
      "po": 956,
      "Ġhalf": 957,
      "att": 958,
      "Ġheard": 959,
      "ĠHow": 960,
      "Ġqui": 961,
      "Ġmany": 962,
      "akes": 963,
      "ĠWhateley": 964,
      "ham": 965,
      "Ġmet": 966,
      "Ġhor": 967,
      "vers": 968,
      "up": 969,
      "ĠThen": 970,
      "ature": 971,
      "Ġnew": 972,
      "Ġknew": 973,
      "!âĢĿ": 974,
      "Ġpleas": 975,
      "app": 976,
      "Ġdoes": 977,
      "press": 978,
      "man": 979,
      "pr": 980,
      "Ġput": 981,
      "que": 982,
      "aking": 983,
      "ully": 984,
      "tre": 985,
      "Ġact": 986,
      "oud": 987,
      "ute": 988,
      "Ġwhole": 989,
      "Ġterrible": 990,
      "CECILY": 991,
      "LY": 992,
      "ane": 993,
      "Ġhar": 994,
      "ĠWil": 995,
      "But": 996,
      "cle": 997,
      "mit": 998,
      "what": 999,
      "so": 1000,
      "Ġchi": 1001,
      "iff": 1002,
      "Ġ1": 1003,
      "Ġwife": 1004,
      "ism": 1005,
      "ished": 1006,
      "ek": 1007,
      "Ġturn": 1008,
      "Ġdark": 1009,
      "ĠWhen": 1010,
      "fter": 1011,
      "sc": 1012,
      "Ġpers": 1013,
      "ying": 1014,
      "Ġ[": 1015,
      "Ġapp": 1016,
      "Ġcle": 1017,
      "Ġrec": 1018,
      "room": 1019,
      "ĠHarry": 1020,
      "raid": 1021,
      "urious": 1022,
      "ition": 1023,
      "Ġmatter": 1024,
      "Ġclo": 1025,
      "ĠPr": 1026,
      "ĠJe": 1027,
      "Ġgot": 1028,
      "Ġmyself": 1029,
      "Ġhill": 1030,
      "Ġhorr": 1031,
      "Ġsupp": 1032,
      "ject": 1033,
      "Ġdist": 1034,
      "âĢĺ": 1035,
      "ĠEr": 1036,
      "What": 1037,
      "ton": 1038,
      "ined": 1039,
      "Ġgi": 1040,
      "HÃī": 1041,
      "cc": 1042,
      "fl": 1043,
      "Ġsoul": 1044,
      "Ġname": 1045,
      "Ġend": 1046,
      "Ġyears": 1047,
      "Ġbegan": 1048,
      "Ġgive": 1049,
      "Ġstr": 1050,
      "ROD": 1051,
      "HÃīROD": 1052,
      "ai": 1053,
      "Ġword": 1054,
      "Ġce": 1055,
      "asil": 1056,
      "Ġuse": 1057,
      "orning": 1058,
      "band": 1059,
      "its": 1060,
      "Ġwithout": 1061,
      "ĠMy": 1062,
      "ĠĠĠĠĠĠĠĠ": 1063,
      "Ġalmost": 1064,
      "Ġap": 1065,
      "Ġsame": 1066,
      "arly": 1067,
      "Ġhus": 1068,
      "unt": 1069,
      "Ġchild": 1070,
      "ex": 1071,
      "sent": 1072,
      "ream": 1073,
      "Ġmind": 1074,
      "obert": 1075,
      "les": 1076,
      "Ġtake": 1077,
      "ison": 1078,
      "Ġbro": 1079,
      "Ġles": 1080,
      "Ġev": 1081,
      "cious": 1082,
      "Ġje": 1083,
      "ky": 1084,
      "ten": 1085,
      "Ġwood": 1086,
      "Ġwhose": 1087,
      "ering": 1088,
      "Ġcha": 1089,
      "ĠHis": 1090,
      "ĠWe": 1091,
      "Ġru": 1092,
      "Ġknown": 1093,
      "Ġafraid": 1094,
      "._": 1095,
      "Ġho": 1096,
      "Ġrep": 1097,
      "Ġread": 1098,
      "Ġeverything": 1099,
      "Ġsecret": 1100,
      "Ġanswered": 1101,
      "now": 1102,
      "ren": 1103,
      "Ġcare": 1104,
      "orm": 1105,
      "als": 1106,
      "ably": 1107,
      "bly": 1108,
      "su": 1109,
      "Ġsound": 1110,
      "Ġfelt": 1111,
      "Ġtoward": 1112,
      "iful": 1113,
      "Ġacc": 1114,
      "aw": 1115,
      "Ġob": 1116,
      "Ġdone": 1117,
      "Ġyet": 1118,
      "Ġmean": 1119,
      "Ġwork": 1120,
      "ped": 1121,
      "ason": 1122,
      "like": 1123,
      "NNE": 1124,
      "Ġve": 1125,
      "Ġtra": 1126,
      "iness": 1127,
      "ĠIf": 1128,
      "imp": 1129,
      "erest": 1130,
      "ERLY": 1131,
      "cient": 1132,
      "Ġcolour": 1133,
      "ERLYNNE": 1134,
      "US": 1135,
      "ĠERLYNNE": 1136,
      "Ġpar": 1137,
      "ĠCA": 1138,
      "Ġplay": 1139,
      "day": 1140,
      "Ġcount": 1141,
      "Ġthree": 1142,
      "Ġred": 1143,
      "Ġblack": 1144,
      "Ġperfect": 1145,
      "Ġwomen": 1146,
      "cy": 1147,
      "Ġwalk": 1148,
      "ters": 1149,
      "Ġdead": 1150,
      "ained": 1151,
      "MA": 1152,
      "gin": 1153,
      "med": 1154,
      "hip": 1155,
      "Ġhands": 1156,
      "Ġbelie": 1157,
      "fin": 1158,
      "my": 1159,
      "Ġpu": 1160,
      "ĠIl": 1161,
      "ix": 1162,
      "mer": 1163,
      "ning": 1164,
      "oi": 1165,
      "ting": 1166,
      "Ġbad": 1167,
      "Ġpain": 1168,
      "ster": 1169,
      "ention": 1170,
      "ool": 1171,
      "pped": 1172,
      "ĠRobert": 1173,
      "ude": 1174,
      "Ġel": 1175,
      "ĠBasil": 1176,
      "Ġcurious": 1177,
      "Ġfather": 1178,
      "arge": 1179,
      "icture": 1180,
      "HE": 1181,
      "Ġest": 1182,
      "Ġmere": 1183,
      "Ġfright": 1184,
      "Ġret": 1185,
      "aught": 1186,
      "Ġhusband": 1187,
      "bed": 1188,
      "fully": 1189,
      "Ġset": 1190,
      "Ġwat": 1191,
      "Ġfan": 1192,
      "ĠCe": 1193,
      "orrow": 1194,
      "Ġbetter": 1195,
      "Ġcre": 1196,
      "Ġfind": 1197,
      "Ġpol": 1198,
      "Ġinde": 1199,
      "Ġtrue": 1200,
      "Ġbecause": 1201,
      "Ãł": 1202,
      "Ġser": 1203,
      "Ġmod": 1204,
      "Ġagainst": 1205,
      "ween": 1206,
      ".\"": 1207,
      "EL": 1208,
      "him": 1209,
      "Ġgone": 1210,
      "ĠWhy": 1211,
      "uck": 1212,
      "Ġair": 1213,
      "rel": 1214,
      "have": 1215,
      "Ġfell": 1216,
      "Ġgu": 1217,
      "uth": 1218,
      "ently": 1219,
      "Ġwhite": 1220,
      "ssible": 1221,
      "Ġdread": 1222,
      "Ġvoice": 1223,
      "Ġsl": 1224,
      "arden": 1225,
      "bled": 1226,
      "du": 1227,
      "oor": 1228,
      "ene": 1229,
      "Ġcur": 1230,
      "Ġcult": 1231,
      "Ġfam": 1232,
      "let": 1233,
      "Ġwhy": 1234,
      "Ġstone": 1235,
      "ERS": 1236,
      "Ġacross": 1237,
      "Ġpleasure": 1238,
      "Yes": 1239,
      "Ġtill": 1240,
      "Ġtable": 1241,
      "Ġsw": 1242,
      "res": 1243,
      "ress": 1244,
      "Ġwild": 1245,
      "Ġbu": 1246,
      "owing": 1247,
      "Ġgra": 1248,
      "ĠSt": 1249,
      "Ġvous": 1250,
      "Ġpoor": 1251,
      "Ġenough": 1252,
      "Ġinterest": 1253,
      "ĠU": 1254,
      "Ġhat": 1255,
      "Ġsir": 1256,
      "Ġmorning": 1257,
      "Ġcar": 1258,
      "Ġfact": 1259,
      "Ġheart": 1260,
      "irl": 1261,
      "ĠAl": 1262,
      "Ġrather": 1263,
      "estion": 1264,
      "ured": 1265,
      "Ġindeed": 1266,
      "AS": 1267,
      "hind": 1268,
      "haps": 1269,
      "Ġhome": 1270,
      "Ġhaving": 1271,
      "ides": 1272,
      "Ġsure": 1273,
      "olute": 1274,
      "raw": 1275,
      "ms": 1276,
      "rist": 1277,
      "Ġsince": 1278,
      "read": 1279,
      "arch": 1280,
      "Ġeach": 1281,
      "Ġsun": 1282,
      "ĠEng": 1283,
      "Ġimp": 1284,
      "fessor": 1285,
      "ok": 1286,
      "Ġlarge": 1287,
      "any": 1288,
      "Ġdeep": 1289,
      "Ġcountry": 1290,
      "ming": 1291,
      "Ġod": 1292,
      "Ġdu": 1293,
      "Ġhear": 1294,
      "Ġref": 1295,
      "ird": 1296,
      "cily": 1297,
      "ired": 1298,
      "Ġprop": 1299,
      "Ġhard": 1300,
      "VERS": 1301,
      "body": 1302,
      "use": 1303,
      "Ġsens": 1304,
      "Ġwater": 1305,
      "Ġboth": 1306,
      "Ġinst": 1307,
      "there": 1308,
      "ĠMiss": 1309,
      "Ġgold": 1310,
      "Ġsmall": 1311,
      "VERSHAM": 1312,
      "ui": 1313,
      "Ġfoll": 1314,
      "ety": 1315,
      "Ġwhile": 1316,
      "ĠAh": 1317,
      "ĠAs": 1318,
      "Ġtook": 1319,
      "Ġes": 1320,
      "Ġide": 1321,
      "Ġtou": 1322,
      "ating": 1323,
      "ille": 1324,
      "ular": 1325,
      "aken": 1326,
      "Ã©t": 1327,
      "denly": 1328,
      "Ġappe": 1329,
      "SS": 1330,
      "clo": 1331,
      "no": 1332,
      "sed": 1333,
      "Ġaw": 1334,
      "Ġwait": 1335,
      "ents": 1336,
      "amp": 1337,
      "Ġsoon": 1338,
      "ĠLe": 1339,
      "ember": 1340,
      "Ġperson": 1341,
      "Ġsuppose": 1342,
      "Oh": 1343,
      "look": 1344,
      "nter": 1345,
      "ted": 1346,
      "ither": 1347,
      "Ġlight": 1348,
      "ank": 1349,
      "stand": 1350,
      "LEN": 1351,
      "ĠCAVERSHAM": 1352,
      "DO": 1353,
      "der": 1354,
      "Ġil": 1355,
      "hes": 1356,
      "Ġco": 1357,
      "Ġlist": 1358,
      "Ġlau": 1359,
      "They": 1360,
      "Ġspeak": 1361,
      "ENDO": 1362,
      "Ġhope": 1363,
      "ENDOLEN": 1364,
      "WENDOLEN": 1365,
      "oke": 1366,
      "were": 1367,
      "Ġwish": 1368,
      "Ġbook": 1369,
      "Ġdiff": 1370,
      "Ġhel": 1371,
      "ction": 1372,
      "Ġabsolute": 1373,
      "mitage": 1374,
      "Ġbelieve": 1375,
      "BY": 1376,
      "GWENDOLEN": 1377,
      "az": 1378,
      "ien": 1379,
      "Ġsing": 1380,
      "Ġthese": 1381,
      "ased": 1382,
      "Ġph": 1383,
      "ality": 1384,
      "Ġanother": 1385,
      "Ġnext": 1386,
      "ung": 1387,
      "ondon": 1388,
      "ĠJo": 1389,
      "Ġasked": 1390,
      "Ġfriends": 1391,
      "ier": 1392,
      "ror": 1393,
      "Ġ'": 1394,
      "Ġsense": 1395,
      "arg": 1396,
      "Ġem": 1397,
      "Ġpoint": 1398,
      "Ġimag": 1399,
      "Ġpassed": 1400,
      "Ġhorror": 1401,
      "AT": 1402,
      "In": 1403,
      "sen": 1404,
      "outh": 1405,
      "Ġwindow": 1406,
      "Ġpur": 1407,
      "Ġgirl": 1408,
      "Ġdeath": 1409,
      "inderm": 1410,
      "ĠOf": 1411,
      "Ġcannot": 1412,
      "Ġroad": 1413,
      "indermere": 1414,
      "BEL": 1415,
      "Ġsy": 1416,
      "Ġfall": 1417,
      "Ġhide": 1418,
      "ĠGod": 1419,
      "Ġbrought": 1420,
      "Ġothers": 1421,
      "Ġbetween": 1422,
      "Ġbeautiful": 1423,
      "ho": 1424,
      "kham": 1425,
      "ative": 1426,
      "Ġgarden": 1427,
      "Ġbehind": 1428,
      "Ġrest": 1429,
      "Ġste": 1430,
      "Ġsud": 1431,
      "Ġflow": 1432,
      "Ġmarried": 1433,
      "strous": 1434,
      "PP": 1435,
      "some": 1436,
      "will": 1437,
      "Ġmor": 1438,
      "sel": 1439,
      "rop": 1440,
      "ĠAn": 1441,
      "antic": 1442,
      "ief": 1443,
      "Ġlooking": 1444,
      "Ġtrou": 1445,
      "Ġtrees": 1446,
      "And": 1447,
      "Enter": 1448,
      "LL": 1449,
      "con": 1450,
      "Ãª": 1451,
      "heve": 1452,
      "Ġswe": 1453,
      "Ġsky": 1454,
      "ising": 1455,
      "Ġgave": 1456,
      "Ġitself": 1457,
      "Ġstand": 1458,
      "ists": 1459,
      "Ġused": 1460,
      "DU": 1461,
      "RACK": 1462,
      "kn": 1463,
      "oes": 1464,
      "ĠÃł": 1465,
      "Ġtri": 1466,
      "Ġtry": 1467,
      "Ġtaken": 1468,
      "Ġpast": 1469,
      "Ġhum": 1470,
      "uring": 1471,
      "ains": 1472,
      "ĠBRACK": 1473,
      "Ġseems": 1474,
      "NELL": 1475,
      "ARK": 1476,
      "Ġvisit": 1477,
      "ĠBRACKNELL": 1478,
      "Dorian": 1479,
      "MI": 1480,
      "TON": 1481,
      "ec": 1482,
      "Ġdou": 1483,
      "ash": 1484,
      "Ġinv": 1485,
      "used": 1486,
      "aret": 1487,
      "Ġrose": 1488,
      "Ġfew": 1489,
      "Ġfeet": 1490,
      "Ġdays": 1491,
      "Ġelse": 1492,
      "ip": 1493,
      "Ġhour": 1494,
      "allward": 1495,
      "une": 1496,
      "Ġexc": 1497,
      "ĠPro": 1498,
      "Ġwonderful": 1499,
      "Ġcommon": 1500,
      "RI": 1501,
      "gy": 1502,
      "Ġid": 1503,
      "atur": 1504,
      "ays": 1505,
      "aces": 1506,
      "ĠBr": 1507,
      "Ġcoming": 1508,
      "bling": 1509,
      "ARL": 1510,
      "Ġcalled": 1511,
      "ĠWilbur": 1512,
      ",\"": 1513,
      "OM": 1514,
      "bt": 1515,
      "from": 1516,
      "ken": 1517,
      "would": 1518,
      "Ġage": 1519,
      "ening": 1520,
      "Ġcoll": 1521,
      "Ġless": 1522,
      "ade": 1523,
      "Ġwhom": 1524,
      "Ġmeet": 1525,
      "illed": 1526,
      "overed": 1527,
      "pression": 1528,
      "MABEL": 1529,
      "That": 1530,
      "ines": 1531,
      "Ġbo": 1532,
      "Ġcry": 1533,
      "Ġfin": 1534,
      "ĠSo": 1535,
      "Ġsecond": 1536,
      "AN": 1537,
      "Then": 1538,
      "Well": 1539,
      "ually": 1540,
      "ĠQ": 1541,
      "Ġbody": 1542,
      "Ġind": 1543,
      "iled": 1544,
      "iltern": 1545,
      "ĠLondon": 1546,
      "ĠDun": 1547,
      "hansen": 1548,
      "Ġuncle": 1549,
      "ately": 1550,
      "ĠArkham": 1551,
      "which": 1552,
      "Ġcertainly": 1553,
      "Ġwords": 1554,
      "ks": 1555,
      "Ġson": 1556,
      "ities": 1557,
      "Ġmus": 1558,
      "ises": 1559,
      "asse": 1560,
      "Ġpicture": 1561,
      "Ġstart": 1562,
      "ached": 1563,
      "ield": 1564,
      "Ġsays": 1565,
      "Ġdreams": 1566,
      "cript": 1567,
      "._]": 1568,
      "Ġfamily": 1569,
      "Mr": 1570,
      "My": 1571,
      "aid": 1572,
      "ez": 1573,
      "hu": 1574,
      "ĠAll": 1575,
      "olen": 1576,
      "ciety": 1577,
      "who": 1578,
      "Ġletter": 1579,
      "Ġmerely": 1580,
      "Ġhelp": 1581,
      "nest": 1582,
      "tered": 1583,
      "wich": 1584,
      "Ġsat": 1585,
      "Ġsle": 1586,
      "Ġrel": 1587,
      "Ġsuff": 1588,
      "....": 1589,
      "INGTON": 1590,
      "Ġmonstrous": 1591,
      "Ġwrong": 1592,
      "Ġkeep": 1593,
      "ĠChiltern": 1594,
      "heveley": 1595,
      "ARLINGTON": 1596,
      "ded": 1597,
      "Ġdet": 1598,
      "Ġinc": 1599,
      "Ġheav": 1600,
      "ĠThis": 1601,
      "ching": 1602,
      "ĠDARLINGTON": 1603,
      "Ġlive": 1604,
      "Ġfear": 1605,
      "Ġevening": 1606,
      "Ġentire": 1607,
      "Ġregard": 1608,
      "Ġturned": 1609,
      "fe": 1610,
      "iby": 1611,
      "Ġmin": 1612,
      "Ġmakes": 1613,
      "Ġfire": 1614,
      "ously": 1615,
      "Ġnear": 1616,
      "ĠOld": 1617,
      "oney": 1618,
      "There": 1619,
      "Ġbrother": 1620,
      "HÃīRODE": 1621,
      "ibyl": 1622,
      "Al": 1623,
      "CHA": 1624,
      "tis": 1625,
      "ised": 1626,
      "Ġcut": 1627,
      "Ġfa": 1628,
      "Ġins": 1629,
      "Ġbey": 1630,
      "Ġmem": 1631,
      "ĠLORD": 1632,
      "ushed": 1633,
      "ĠOne": 1634,
      "Ġgrand": 1635,
      "ches": 1636,
      "bit": 1637,
      "cul": 1638,
      "eor": 1639,
      "gg": 1640,
      "Ġsent": 1641,
      "Ġcity": 1642,
      "Ġoften": 1643,
      "ĠWell": 1644,
      "ĠWindermere": 1645,
      "Ġlips": 1646,
      "Ġweek": 1647,
      "Ġmonth": 1648,
      "chess": 1649,
      "Ġreturn": 1650,
      "known": 1651,
      "ru": 1652,
      "Ġside": 1653,
      "Ġmo": 1654,
      "Ġmur": 1655,
      "Ġport": 1656,
      "ics": 1657,
      "Ġstood": 1658,
      "Ġancient": 1659,
      "ĠDon": 1660,
      "Ġune": 1661,
      "Ġcomple": 1662,
      "Ġaround": 1663,
      "How": 1664,
      "fa": 1665,
      "ues": 1666,
      "inary": 1667,
      "Ġsin": 1668,
      "Ġocc": 1669,
      "Ġmother": 1670,
      "Ġcor": 1671,
      "orry": 1672,
      "Ġdans": 1673,
      "Ġlow": 1674,
      "Ġhigh": 1675,
      "Ġstay": 1676,
      "ific": 1677,
      "ĠDr": 1678,
      "ĠDu": 1679,
      "Ġoutside": 1680,
      "blic": 1681,
      "bury": 1682,
      "imply": 1683,
      "ĠCecily": 1684,
      "Ġserious": 1685,
      "Ġabsolutely": 1686,
      "nce": 1687,
      "ring": 1688,
      "Ġmention": 1689,
      "Ġfaint": 1690,
      "Ġdi": 1691,
      "Ġdr": 1692,
      "Ġnature": 1693,
      "Ġgen": 1694,
      "Ġele": 1695,
      "ĠTh": 1696,
      "ĠTo": 1697,
      "ĠCan": 1698,
      "Ġdev": 1699,
      "Ġdelight": 1700,
      "ĠSe": 1701,
      "Ġvi": 1702,
      "Ġamong": 1703,
      "Ġpassion": 1704,
      "ized": 1705,
      "Ġgreen": 1706,
      "gether": 1707,
      "cons": 1708,
      "ey": 1709,
      "mon": 1710,
      "ser": 1711,
      "wend": 1712,
      "Ġfore": 1713,
      "orough": 1714,
      "ote": 1715,
      "thur": 1716,
      "Ġpresent": 1717,
      "ĠArmitage": 1718,
      "Ġgrey": 1719,
      "Ġhorrible": 1720,
      "Ġhideous": 1721,
      "selves": 1722,
      "wendolen": 1723,
      "aven": 1724,
      "where": 1725,
      "Ġsort": 1726,
      "arr": 1727,
      "erent": 1728,
      "allow": 1729,
      "Ġsometimes": 1730,
      "Ġadm": 1731,
      "ĠErnest": 1732,
      "gern": 1733,
      "Ġtem": 1734,
      "head": 1735,
      "ited": 1736,
      "Ġcent": 1737,
      "Ġdri": 1738,
      "Ġlad": 1739,
      "arling": 1740,
      "alth": 1741,
      "Ġforg": 1742,
      "ĠCheveley": 1743,
      "ĠDe": 1744,
      "Ġexcept": 1745,
      "Ġopen": 1746,
      "ĠPrince": 1747,
      "gernon": 1748,
      "SAL": 1749,
      "wor": 1750,
      "ĠâĢĺ": 1751,
      "ining": 1752,
      "Ġsorry": 1753,
      "Ġbes": 1754,
      "Ġbest": 1755,
      "Ġfull": 1756,
      "Ġpaint": 1757,
      "Ġreason": 1758,
      "Ġwhis": 1759,
      "Ġrom": 1760,
      "Ġfront": 1761,
      "emb": 1762,
      "ĠOF": 1763,
      "omething": 1764,
      "Ġhowever": 1765,
      "Ġ19": 1766,
      "Ġgiven": 1767,
      "Ġtowards": 1768,
      "Ġbeyond": 1769,
      "She": 1770,
      "oot": 1771,
      "Ġri": 1772,
      "Ġwon": 1773,
      "ister": 1774,
      "Ġdire": 1775,
      "Ġnor": 1776,
      "ĠSibyl": 1777,
      "Ġext": 1778,
      "Ġknows": 1779,
      "ĠFor": 1780,
      "To": 1781,
      "go": 1782,
      "Ġ2": 1783,
      "Ġbit": 1784,
      "Ġche": 1785,
      "ingly": 1786,
      "ories": 1787,
      "Ġyouth": 1788,
      "ets": 1789,
      "ĠHallward": 1790,
      "ellow": 1791,
      "uss": 1792,
      "Ġcomme": 1793,
      "Ġdisc": 1794,
      "Ġbecome": 1795,
      "form": 1796,
      "cox": 1797,
      "Ġodd": 1798,
      "ĠJohansen": 1799,
      "cess": 1800,
      "iant": 1801,
      "und": 1802,
      "Ġslight": 1803,
      "Ġcou": 1804,
      "Ġcel": 1805,
      "Ġfig": 1806,
      "urs": 1807,
      "Ġstars": 1808,
      "ĠAt": 1809,
      "Ġdec": 1810,
      "ĠGood": 1811,
      "ement": 1812,
      "olog": 1813,
      "race": 1814,
      "pper": 1815,
      "Ġleave": 1816,
      "itting": 1817,
      "Ġbecame": 1818,
      "Ġunderstand": 1819,
      "Ġclose": 1820,
      "Ġdoubt": 1821,
      "Ġheavy": 1822,
      "RA": 1823,
      "RE": 1824,
      "af": 1825,
      "gl": 1826,
      "nne": 1827,
      "well": 1828,
      "ĠZ": 1829,
      "Ġmoon": 1830,
      "Ġlate": 1831,
      "rove": 1832,
      "Ġlead": 1833,
      "Ġspoke": 1834,
      "Ġpret": 1835,
      "Ġglad": 1836,
      "airs": 1837,
      "Ġsubject": 1838,
      "Ġhappened": 1839,
      "Ġperfectly": 1840,
      "Ġsuddenly": 1841,
      "ĠProfessor": 1842,
      "ĠDunwich": 1843,
      "LD": 1844,
      "cr": 1845,
      "dis": 1846,
      "gan": 1847,
      "sha": 1848,
      "oring": 1849,
      "Ġeff": 1850,
      "Ġunknown": 1851,
      "Ġexpl": 1852,
      "ĠNow": 1853,
      "Ġground": 1854,
      "Ġterror": 1855,
      "ĠWilcox": 1856,
      "flu": 1857,
      "Ġwalked": 1858,
      "Ġpublic": 1859,
      "Ġdreadful": 1860,
      "Ġmusic": 1861,
      "aves": 1862,
      "eed": 1863,
      "pro": 1864,
      "part": 1865,
      "ship": 1866,
      "ub": 1867,
      "oured": 1868,
      "Ġbre": 1869,
      "Ġflo": 1870,
      "Ġdim": 1871,
      "lynne": 1872,
      "ales": 1873,
      "Ġforget": 1874,
      "Ġann": 1875,
      "thul": 1876,
      "astic": 1877,
      "Ã©s": 1878,
      "OMÃī": 1879,
      "thulhu": 1880,
      "UG": 1881,
      "chan": 1882,
      "pri": 1883,
      "sm": 1884,
      "sp": 1885,
      "ses": 1886,
      "ination": 1887,
      "velo": 1888,
      "idden": 1889,
      "âĢľâĢĺ": 1890,
      "they": 1891,
      "Ġsumm": 1892,
      "Ġneed": 1893,
      "Ġquestion": 1894,
      "Ġalone": 1895,
      "Ġcomp": 1896,
      "Ġimm": 1897,
      "ments": 1898,
      "Ġyear": 1899,
      "Ġartist": 1900,
      "grasse": 1901,
      "possible": 1902,
      "UST": 1903,
      "Ġhuman": 1904,
      "Ġsimply": 1905,
      "Ġmal": 1906,
      "ask": 1907,
      "ĠInd": 1908,
      "omen": 1909,
      "ribly": 1910,
      "Ġass": 1911,
      "ours": 1912,
      "Ġlearn": 1913,
      "aged": 1914,
      "Ġgrass": 1915,
      "Ġago": 1916,
      "Ġdress": 1917,
      "ĠArthur": 1918,
      "Ġtrem": 1919,
      "Ġmodern": 1920,
      "lish": 1921,
      "Ġdied": 1922,
      "ates": 1923,
      "ĠHans": 1924,
      "ĠWor": 1925,
      "arent": 1926,
      "Ġjoy": 1927,
      "ague": 1928,
      "ney": 1929,
      "Ġbring": 1930,
      "place": 1931,
      "Ġremember": 1932,
      "ĠChrist": 1933,
      "Ġhills": 1934,
      "ĠUn": 1935,
      "SALOMÃī": 1936,
      "Ar": 1937,
      "As": 1938,
      "IAS": 1939,
      "OLD": 1940,
      "cing": 1941,
      "under": 1942,
      "inct": 1943,
      "Ġsight": 1944,
      "Ġmist": 1945,
      "Ġcold": 1946,
      "ĠIs": 1947,
      "ider": 1948,
      "riage": 1949,
      "ĠAUG": 1950,
      "ilst": 1951,
      "Ġabove": 1952,
      "Ġleast": 1953,
      "Ġshad": 1954,
      "ocked": 1955,
      "HÃīRODIAS": 1956,
      "USTUS": 1957,
      "ĠAUGUSTUS": 1958,
      "iar": 1959,
      "ler": 1960,
      "she": 1961,
      "zz": 1962,
      "Ġtimes": 1963,
      "Ġbus": 1964,
      "Ġcase": 1965,
      "ones": 1966,
      "Ġlay": 1967,
      "ott": 1968,
      "Ġeld": 1969,
      "Ġeither": 1970,
      "ury": 1971,
      "iller": 1972,
      "Ġran": 1973,
      "ĠDo": 1974,
      "ants": 1975,
      "ures": 1976,
      "Ã©e": 1977,
      "Ġlooks": 1978,
      "Ġcloud": 1979,
      "ashion": 1980,
      "On": 1981,
      "could": 1982,
      "every": 1983,
      "ery": 1984,
      "Ġblo": 1985,
      "Ġtop": 1986,
      "ots": 1987,
      "icul": 1988,
      "ĠSir": 1989,
      "Ġvie": 1990,
      "ĠGRA": 1991,
      "ĠLADY": 1992,
      "ests": 1993,
      "eless": 1994,
      "Ġmanner": 1995,
      "appe": 1996,
      "Ġcharming": 1997,
      "Ġbeauty": 1998,
      "ĠErlynne": 1999,
      "Ġsym": 2000,
      "ĠGRAHAM": 2001,
      "fort": 2002,
      "ghed": 2003,
      "ience": 2004,
      "oint": 2005,
      "vent": 2006,
      "ĠK": 2007,
      "Ġsqu": 2008,
      "ites": 2009,
      "Ġca": 2010,
      "Ġda": 2011,
      "terv": 2012,
      "ĠHer": 2013,
      "their": 2014,
      "Ġlives": 2015,
      "Ġexam": 2016,
      "itted": 2017,
      "Ġgrow": 2018,
      "Ġconscious": 2019,
      "Ġcontin": 2020,
      "Ġchair": 2021,
      "ĠEnglish": 2022,
      "Ġlaugh": 2023,
      "ĠWorthing": 2024,
      "can": 2025,
      "house": 2026,
      "ib": 2027,
      "spect": 2028,
      "uff": 2029,
      "wallow": 2030,
      "Ġir": 2031,
      "Ġable": 2032,
      "Ġsorrow": 2033,
      "Ġbig": 2034,
      "eness": 2035,
      "Ġfour": 2036,
      "Ġnone": 2037,
      "owly": 2038,
      "Ġgent": 2039,
      "iment": 2040,
      "Ġstir": 2041,
      "Ġstud": 2042,
      "Ġrun": 2043,
      "ards": 2044,
      "Ġdog": 2045,
      "cial": 2046,
      "Ġeng": 2047,
      "Ġperhaps": 2048,
      "Ġgrew": 2049,
      "Ġanswer": 2050,
      "Ġclear": 2051,
      "ĠLegrasse": 2052,
      "Ġflowers": 2053,
      "CHE": 2054,
      "Ex": 2055,
      "Lord": 2056,
      "pes": 2057,
      "inn": 2058,
      "Ġwhe": 2059,
      "Ġori": 2060,
      "oup": 2061,
      "Ġbed": 2062,
      "Ġfle": 2063,
      "Ġdra": 2064,
      "Ġtogether": 2065,
      "asc": 2066,
      "Ġnam": 2067,
      "ceed": 2068,
      "urd": 2069,
      "Ġstory": 2070,
      "iling": 2071,
      "ĠMer": 2072,
      "ĠMiller": 2073,
      "ĠRe": 2074,
      "Ġarri": 2075,
      "ĠJack": 2076,
      "about": 2077,
      "ertainly": 2078,
      "Ġwoods": 2079,
      "Ġidea": 2080,
      "atural": 2081,
      "ĠQu": 2082,
      "When": 2083,
      "aving": 2084,
      "par": 2085,
      "Ġed": 2086,
      "Ġver": 2087,
      "eral": 2088,
      "Ġma": 2089,
      "Ġtown": 2090,
      "Ġlost": 2091,
      "Ġlater": 2092,
      "vel": 2093,
      "ici": 2094,
      "ices": 2095,
      "idence": 2096,
      "rif": 2097,
      "rill": 2098,
      "adays": 2099,
      "aced": 2100,
      "ilt": 2101,
      "ĠSOLD": 2102,
      "rait": 2103,
      "Ġshowed": 2104,
      "isted": 2105,
      "Ġthemselves": 2106,
      "Ġprom": 2107,
      "Ġdidn": 2108,
      "Ġlonger": 2109,
      "Ġtalked": 2110,
      "finite": 2111,
      "aughter": 2112,
      "ĠSOLDAT": 2113,
      "After": 2114,
      "With": 2115,
      "how": 2116,
      "noon": 2117,
      "phe": 2118,
      "Ġill": 2119,
      "reen": 2120,
      "Ġmount": 2121,
      "Ġcir": 2122,
      "lle": 2123,
      "arm": 2124,
      "Ġpri": 2125,
      "Ġpie": 2126,
      "Ġpap": 2127,
      "ower": 2128,
      "vell": 2129,
      "utter": 2130,
      "stairs": 2131,
      "ided": 2132,
      "irgin": 2133,
      "ĠGwendolen": 2134,
      "Ġspir": 2135,
      "Ġafternoon": 2136,
      "Ġfarm": 2137,
      "Ġfancy": 2138,
      "Ġhardly": 2139,
      "Ġorigin": 2140,
      "WI": 2141,
      "bb": 2142,
      "men": 2143,
      "time": 2144,
      "win": 2145,
      "rem": 2146,
      "Ġwall": 2147,
      "Ġbore": 2148,
      "esides": 2149,
      "oms": 2150,
      "Ġsugg": 2151,
      "Ġliving": 2152,
      "uscript": 2153,
      "ĠOtis": 2154,
      "Ġexper": 2155,
      "Ġmanuscript": 2156,
      "never": 2157,
      "Ġprofess": 2158,
      "Ġprin": 2159,
      "Ġqueer": 2160,
      "ugust": 2161,
      "Ġentirely": 2162,
      "Ġfloor": 2163,
      ",âĢĻ": 2164,
      ".âĢĻ": 2165,
      "LA": 2166,
      "do": 2167,
      "ges": 2168,
      "ives": 2169,
      "rude": 2170,
      "hand": 2171,
      "Ġmoney": 2172,
      "eng": 2173,
      "Ġfre": 2174,
      "Ġduring": 2175,
      "Ġhair": 2176,
      "iles": 2177,
      "Ġsever": 2178,
      "ĠMay": 2179,
      "ĠBun": 2180,
      "Ġdoing": 2181,
      "ush": 2182,
      "Ġalso": 2183,
      "Ġgoes": 2184,
      "Ġposs": 2185,
      "bles": 2186,
      "Ġscream": 2187,
      "angu": 2188,
      "Ġsilence": 2189,
      "Ġevil": 2190,
      "Ġfrightened": 2191,
      "ĠAlgernon": 2192,
      "looking": 2193,
      "Ġdifferent": 2194,
      "argaret": 2195,
      "Ġmurm": 2196,
      "CHESS": 2197,
      "St": 2198,
      "cent": 2199,
      "cap": 2200,
      "dress": 2201,
      "ived": 2202,
      "pered": 2203,
      "rit": 2204,
      "sit": 2205,
      "than": 2206,
      "Ġta": 2207,
      "Ġten": 2208,
      "Ġtried": 2209,
      "Ġsit": 2210,
      "Ġsign": 2211,
      "Ġsix": 2212,
      "Ġmed": 2213,
      "Ġlady": 2214,
      "Ġrid": 2215,
      "Ġexp": 2216,
      "ĠNot": 2217,
      "ertrude": 2218,
      "rang": 2219,
      "Ġprison": 2220,
      "ize": 2221,
      "Ġhappy": 2222,
      "Ġchildren": 2223,
      "Ġsweet": 2224,
      "Ġsleep": 2225,
      "WICK": 2226,
      "HI": 2227,
      "MBY": 2228,
      "Th": 2229,
      "host": 2230,
      "ius": 2231,
      "rough": 2232,
      "Ġfant": 2233,
      "Ġdare": 2234,
      "arl": 2235,
      "Ġyellow": 2236,
      "utes": 2237,
      "ERWICK": 2238,
      "amm": 2239,
      "ulpt": 2240,
      "ĠBERWICK": 2241,
      "Ġlived": 2242,
      "Ġpoison": 2243,
      "Ġtruth": 2244,
      "Ġadv": 2245,
      "Ġloved": 2246,
      "Ġhate": 2247,
      "Ġcomplete": 2248,
      "arrow": 2249,
      "Ġcela": 2250,
      "Ġgentle": 2251,
      "bs": 2252,
      "life": 2253,
      "ued": 2254,
      "vo": 2255,
      "Ġave": 2256,
      "Ġcorn": 2257,
      "Ġdraw": 2258,
      "Ġglo": 2259,
      "ette": 2260,
      "Ġreached": 2261,
      "Ġdem": 2262,
      "ĠMargaret": 2263,
      "gell": 2264,
      "ĠSwallow": 2265,
      "Ġvague": 2266,
      "Ġyourself": 2267,
      "Ġblood": 2268,
      "ĠVane": 2269,
      "Ġspect": 2270,
      "Ġwrite": 2271,
      "Ġkept": 2272,
      "ĠEngland": 2273,
      "Ġfollowed": 2274,
      "PPS": 2275,
      "Ġmonths": 2276,
      "Ġseveral": 2277,
      "HIPPS": 2278,
      "TER": 2279,
      "ebr": 2280,
      "ibly": 2281,
      "little": 2282,
      "morrow": 2283,
      "such": 2284,
      "into": 2285,
      "inner": 2286,
      "Ġsim": 2287,
      "Ġserv": 2288,
      "Ġbas": 2289,
      "Ġbur": 2290,
      "Ġbird": 2291,
      "ony": 2292,
      "Ġdie": 2293,
      "ana": 2294,
      "Ġheaven": 2295,
      "ically": 2296,
      "irt": 2297,
      "Ġdeal": 2298,
      "Ġquar": 2299,
      "Ġexpect": 2300,
      "Ġpossible": 2301,
      "udd": 2302,
      "icked": 2303,
      "Ġglass": 2304,
      "Ġbegin": 2305,
      "ocket": 2306,
      "ĠOnes": 2307,
      "Ġchance": 2308,
      "Ġchange": 2309,
      "Ã¨s": 2310,
      "Ġstrong": 2311,
      "Ġtraged": 2312,
      "conscious": 2313,
      "Ġpretty": 2314,
      "fluence": 2315,
      "irginia": 2316,
      "Ah": 2317,
      "after": 2318,
      "cha": 2319,
      "des": 2320,
      "past": 2321,
      "ract": 2322,
      "tes": 2323,
      "xious": 2324,
      "Ġcond": 2325,
      "Ġfait": 2326,
      "aled": 2327,
      "idly": 2328,
      "ries": 2329,
      "Ġwhilst": 2330,
      "Ġstre": 2331,
      "ĠAugust": 2332,
      "Ġwithin": 2333,
      "illy": 2334,
      "ĠGard": 2335,
      "Ġmyster": 2336,
      "Ġnearly": 2337,
      "Ġalong": 2338,
      "itten": 2339,
      "Ġprodu": 2340,
      "Ġdescri": 2341,
      "Ġtalking": 2342,
      "Ġkey": 2343,
      "Ġsilver": 2344,
      "Ġpainter": 2345,
      "Ġsingle": 2346,
      "nell": 2347,
      "ral": 2348,
      "when": 2349,
      "ze": 2350,
      "Ġsad": 2351,
      "ready": 2352,
      "itual": 2353,
      "Ġmort": 2354,
      "enas": 2355,
      "Ġdan": 2356,
      "omÃ©": 2357,
      "otes": 2358,
      "iced": 2359,
      "alomÃ©": 2360,
      "ĠAfter": 2361,
      "Ġnote": 2362,
      "ility": 2363,
      "them": 2364,
      "ĠSome": 2365,
      "ume": 2366,
      "acknell": 2367,
      "ages": 2368,
      "ians": 2369,
      "off": 2370,
      "Ġspot": 2371,
      "mely": 2372,
      "cesse": 2373,
      "Ġopened": 2374,
      "MIER": 2375,
      "ĠBracknell": 2376,
      "REMIER": 2377,
      "ĠZenas": 2378,
      "ĠBunbury": 2379,
      "Ġmurmured": 2380,
      "col": 2381,
      "dream": 2382,
      "found": 2383,
      "hor": 2384,
      "pass": 2385,
      "your": 2386,
      "Ġtu": 2387,
      "Ġtale": 2388,
      "Ġwin": 2389,
      "Ġmot": 2390,
      "Ġmaking": 2391,
      "Ġbene": 2392,
      "Ġfut": 2393,
      "Ġfive": 2394,
      "ashed": 2395,
      "uttered": 2396,
      "Ġsend": 2397,
      "Ġvar": 2398,
      "pend": 2399,
      "ourt": 2400,
      "Ġshook": 2401,
      "ĠNew": 2402,
      "cience": 2403,
      "Ġsomewhat": 2404,
      "ively": 2405,
      "Ġworth": 2406,
      "rans": 2407,
      "Ġimage": 2408,
      "Ġscar": 2409,
      "ickly": 2410,
      "bye": 2411,
      "Ġremark": 2412,
      "Ġcharac": 2413,
      "anger": 2414,
      "comp": 2415,
      "treet": 2416,
      "Ġwaiting": 2417,
      "Ġtrouble": 2418,
      "DUCHESS": 2419,
      "ĠDuchess": 2420,
      "Ġdelightful": 2421,
      "Ġbitter": 2422,
      "Ġview": 2423,
      "AC": 2424,
      "This": 2425,
      "cher": 2426,
      "king": 2427,
      "Ġbien": 2428,
      "Ġfur": 2429,
      "Ġled": 2430,
      "aring": 2431,
      "Ġpale": 2432,
      "Ġthorough": 2433,
      "ĠWith": 2434,
      "ands": 2435,
      "alley": 2436,
      "Ġrust": 2437,
      "ĠGertrude": 2438,
      "Ġherself": 2439,
      "empt": 2440,
      "ĠOr": 2441,
      "Ġord": 2442,
      "ĠPar": 2443,
      "ĠRocket": 2444,
      "ĠEvery": 2445,
      "Ġgroup": 2446,
      "Ġsaying": 2447,
      "Ġblue": 2448,
      "been": 2449,
      "osop": 2450,
      "Ġentered": 2451,
      "Ġtea": 2452,
      "Ġhorse": 2453,
      "meric": 2454,
      "Ġslowly": 2455,
      "okana": 2456,
      "clock": 2457,
      "ARKER": 2458,
      "Ġbeside": 2459,
      "Ġwhispered": 2460,
      "Ġextra": 2461,
      "Ġslightly": 2462,
      "okanaan": 2463,
      "aim": 2464,
      "come": 2465,
      "ege": 2466,
      "fam": 2467,
      "something": 2468,
      "uct": 2469,
      "Ġty": 2470,
      "has": 2471,
      "iter": 2472,
      "Ġmid": 2473,
      "Ġmove": 2474,
      "Ġmine": 2475,
      "Ġmoi": 2476,
      "Ġburn": 2477,
      "Ġfine": 2478,
      "Ġdom": 2479,
      "Ġlum": 2480,
      "Ġhig": 2481,
      "atic": 2482,
      "Ġheld": 2483,
      "owd": 2484,
      "alm": 2485,
      "amb": 2486,
      "ĠCha": 2487,
      "Ġself": 2488,
      "Ġseven": 2489,
      "then": 2490,
      "ĠMais": 2491,
      "ĠMarch": 2492,
      "Ġsociety": 2493,
      "elle": 2494,
      "ĠLet": 2495,
      "pping": 2496,
      "ppoor": 2497,
      "Ġshort": 2498,
      "Ġunt": 2499,
      "Ġnowadays": 2500,
      "ints": 2501,
      "should": 2502,
      "Ġmeteor": 2503,
      "Ġbroken": 2504,
      "Ġfellow": 2505,
      "Ġawful": 2506,
      "wills": 2507,
      "pril": 2508,
      "ppoorwills": 2509,
      "Goes": 2510,
      "bid": 2511,
      "char": 2512,
      "count": 2513,
      "great": 2514,
      "kes": 2515,
      "must": 2516,
      "wo": 2517,
      "whi": 2518,
      "Ġer": 2519,
      "Ġfail": 2520,
      "Ġfool": 2521,
      "Ġfasc": 2522,
      "Ġhur": 2523,
      "ats": 2524,
      "Ġsto": 2525,
      "Ġstorm": 2526,
      "Ġang": 2527,
      "alled": 2528,
      "Ġdevelo": 2529,
      "ĠMARK": 2530,
      "Ġkiss": 2531,
      "ĠDarling": 2532,
      "Ġdesp": 2533,
      "Ã¨re": 2534,
      "Ġobject": 2535,
      "Ġveget": 2536,
      "Ġgrave": 2537,
      "Ġimport": 2538,
      "Ġlaughed": 2539,
      "Ġbooks": 2540,
      "DUMBY": 2541,
      "ĠMARKBY": 2542,
      "No": 2543,
      "PTER": 2544,
      "Rising": 2545,
      "gar": 2546,
      "sk": 2547,
      "tle": 2548,
      "Ġsont": 2549,
      "itive": 2550,
      "Ġcig": 2551,
      "Ġcop": 2552,
      "Ġfol": 2553,
      "Ġlord": 2554,
      "asy": 2555,
      "Ġyes": 2556,
      "seem": 2557,
      "aded": 2558,
      "ĠAmeric": 2559,
      "quis": 2560,
      "ĠTheir": 2561,
      "ouses": 2562,
      "Ġsofa": 2563,
      "Ġval": 2564,
      "Ġkill": 2565,
      "Ġallow": 2566,
      "ĠBesides": 2567,
      "umbled": 2568,
      "Ġextre": 2569,
      "ieu": 2570,
      "agn": 2571,
      "Ġspring": 2572,
      "Ġshape": 2573,
      "ONT": 2574,
      "osity": 2575,
      "retched": 2576,
      "ĠVous": 2577,
      "Ġboys": 2578,
      "Ġchanged": 2579,
      "Ġabsurd": 2580,
      "attle": 2581,
      "Ġappro": 2582,
      "Ġtouch": 2583,
      "ĠAngell": 2584,
      "MISS": 2585,
      "Ġstarted": 2586,
      "CHAPTER": 2587,
      "Ġ192": 2588,
      "Ġshadow": 2589,
      "Why": 2590,
      "don": 2591,
      "dark": 2592,
      "io": 2593,
      "norm": 2594,
      "ts": 2595,
      "uit": 2596,
      "ule": 2597,
      "Ġtout": 2598,
      "Ġtaking": 2599,
      "Ġtales": 2600,
      "Ġfast": 2601,
      "Ġfield": 2602,
      "Ġline": 2603,
      "Ġlying": 2604,
      "Ġpour": 2605,
      "vere": 2606,
      "Ġrece": 2607,
      "ros": 2608,
      "aining": 2609,
      "ĠMis": 2610,
      "Ġsol": 2611,
      "Ġvan": 2612,
      "Ġfrag": 2613,
      "Ġexact": 2614,
      "Ġalready": 2615,
      "cially": 2616,
      "ĠEven": 2617,
      "orted": 2618,
      "Ġshame": 2619,
      "ĠFrom": 2620,
      "Ġimpossible": 2621,
      "Ġintell": 2622,
      "Ġmoments": 2623,
      "brary": 2624,
      "ugg": 2625,
      "Ġfeeling": 2626,
      "ĠPrism": 2627,
      "Ġappear": 2628,
      "Ġimagination": 2629,
      "Ġromantic": 2630,
      "Ġbusiness": 2631,
      "otesque": 2632,
      "ias": 2633,
      "uary": 2634,
      "Ġsch": 2635,
      "Ġmer": 2636,
      "Ġbarn": 2637,
      "Ġfal": 2638,
      "Ġling": 2639,
      "Ġhon": 2640,
      "Ġhidden": 2641,
      "oman": 2642,
      "Ġready": 2643,
      "Ġsea": 2644,
      "ĠSalomÃ©": 2645,
      "Ġsold": 2646,
      "Ġvalley": 2647,
      "arded": 2648,
      "rage": 2649,
      "ĠYour": 2650,
      "Ġorder": 2651,
      "Ġexpression": 2652,
      "ĠNight": 2653,
      "ĠtrÃ¨s": 2654,
      "Ġaccept": 2655,
      "nothing": 2656,
      "ĠVirginia": 2657,
      "ogn": 2658,
      "Ġresult": 2659,
      "Ġaccount": 2660,
      "RIS": 2661,
      "ĠCanterv": 2662,
      "Ġelder": 2663,
      "ĠMerwin": 2664,
      "Ġbeneath": 2665,
      "Ġextremely": 2666,
      "ape": 2667,
      "ear": 2668,
      "face": 2669,
      "father": 2670,
      "kind": 2671,
      "over": 2672,
      "rase": 2673,
      "sing": 2674,
      "Ġwings": 2675,
      "Ġmiss": 2676,
      "Ġbar": 2677,
      "Ġbreat": 2678,
      "Ġfree": 2679,
      "Ġfilled": 2680,
      "Ġdit": 2681,
      "Ġpause": 2682,
      "Ġnon": 2683,
      "sem": 2684,
      "Ġisn": 2685,
      "Ġund": 2686,
      "Ġforce": 2687,
      "Ġstat": 2688,
      "Ġstate": 2689,
      "Ġstick": 2690,
      "Ġnotes": 2691,
      "ames": 2692,
      "Ġdeli": 2693,
      "ctor": 2694,
      "Ġfrantic": 2695,
      "ordinary": 2696,
      "asted": 2697,
      "ishop": 2698,
      "oses": 2699,
      "Ġtelling": 2700,
      "Ġlaw": 2701,
      "Ġsmile": 2702,
      "present": 2703,
      "aterial": 2704,
      "Ġtears": 2705,
      "Ġsurv": 2706,
      "Ġwatch": 2707,
      "Ġpolice": 2708,
      "Ġidol": 2709,
      "Ġminutes": 2710,
      "Ġmentioned": 2711,
      "Ġforgot": 2712,
      "ussi": 2713,
      "Ġbreak": 2714,
      "Ġgentleman": 2715,
      "CH": 2716,
      "DON": 2717,
      "One": 2718,
      "We": 2719,
      "bell": 2720,
      "back": 2721,
      "ivers": 2722,
      "mo": 2723,
      "more": 2724,
      "uc": 2725,
      "vin": 2726,
      "ĠÃ©t": 2727,
      "itude": 2728,
      "Ġmis": 2729,
      "Ġmouth": 2730,
      "Ġfashion": 2731,
      "oned": 2732,
      "Ġdest": 2733,
      "Ġlone": 2734,
      "Ġlangu": 2735,
      "Ġpay": 2736,
      "Ġinter": 2737,
      "Ġinqu": 2738,
      "Ġhold": 2739,
      "enth": 2740,
      "Ġfort": 2741,
      "ĠAg": 2742,
      "ĠApril": 2743,
      "ĠWas": 2744,
      "this": 2745,
      "though": 2746,
      "cho": 2747,
      "Ġamid": 2748,
      "ĠPer": 2749,
      "ĠPRIS": 2750,
      "Ġspace": 2751,
      "abor": 2752,
      "Ġpres": 2753,
      "Ġsculpt": 2754,
      "Ġdisapp": 2755,
      "Ġadmit": 2756,
      "Ġwrote": 2757,
      "Ġconsider": 2758,
      "Ġattic": 2759,
      "Ġinstant": 2760,
      "Alert": 2761,
      "Ġportrait": 2762,
      "cessary": 2763,
      "quisite": 2764,
      "ĠPRISM": 2765,
      "Don": 2766,
      "PHIPPS": 2767,
      "SU": 2768,
      "bo": 2769,
      "cal": 2770,
      "ds": 2771,
      "ext": 2772,
      "ked": 2773,
      "path": 2774,
      "Ġtired": 2775,
      "hered": 2776,
      "Ġcreat": 2777,
      "Ġcovered": 2778,
      "Ġfond": 2779,
      "only": 2780,
      "Ġdust": 2781,
      "Ġdull": 2782,
      "Ġland": 2783,
      "Ġlui": 2784,
      "arque": 2785,
      "atha": 2786,
      "Ġbear": 2787,
      "Ġyard": 2788,
      "icult": 2789,
      "Ġeat": 2790,
      "enty": 2791,
      "ĠThan": 2792,
      "ĠHouse": 2793,
      "through": 2794,
      "Ġmeans": 2795,
      "ils": 2796,
      "andal": 2797,
      "Ġdep": 2798,
      "Ġrate": 2799,
      "elled": 2800,
      "ĠGoring": 2801,
      "ppy": 2802,
      "istence": 2803,
      "Ġgrotesque": 2804,
      "uddenly": 2805,
      "Ġtrust": 2806,
      "Ġpecul": 2807,
      "ended": 2808,
      "Ġlovely": 2809,
      "lessly": 2810,
      "Ġlaid": 2811,
      "Ġrememb": 2812,
      "hys": 2813,
      "Ġeye": 2814,
      "Ġearly": 2815,
      "Ġletters": 2816,
      "Ġresp": 2817,
      "ĠOnly": 2818,
      "Ġdoesn": 2819,
      "Ġstanding": 2820,
      "Ġmemory": 2821,
      "Ġfigure": 2822,
      "Ġengaged": 2823,
      "Ġfantastic": 2824,
      "Ġtragedy": 2825,
      "ĠGardner": 2826,
      "Ġcharacter": 2827,
      "Ġvegetation": 2828,
      "BLE": 2829,
      "aly": 2830,
      "away": 2831,
      "aff": 2832,
      "bre": 2833,
      "bes": 2834,
      "bro": 2835,
      "bel": 2836,
      "case": 2837,
      "del": 2838,
      "ead": 2839,
      "ging": 2840,
      "ike": 2841,
      "ns": 2842,
      "oir": 2843,
      "ron": 2844,
      "vest": 2845,
      "vol": 2846,
      "Ġsn": 2847,
      "Ġwide": 2848,
      "Ġfille": 2849,
      "Ġdinner": 2850,
      "Ġnum": 2851,
      "Ġnerv": 2852,
      "omme": 2853,
      "ator": 2854,
      "Ġheight": 2855,
      "Ġbell": 2856,
      "seen": 2857,
      "sequ": 2858,
      "uts": 2859,
      "strange": 2860,
      "eth": 2861,
      "Ġreve": 2862,
      "acrif": 2863,
      "ified": 2864,
      "ĠThem": 2865,
      "ulgar": 2866,
      "Ġring": 2867,
      "Ġvast": 2868,
      "ĠGl": 2869,
      "ĠGiant": 2870,
      "ested": 2871,
      "Ġshr": 2872,
      "Ġshow": 2873,
      "Ġwhatever": 2874,
      "again": 2875,
      "Ġaffect": 2876,
      "Ġcomes": 2877,
      "ires": 2878,
      "things": 2879,
      "Ġgrowing": 2880,
      "Ġproper": 2881,
      "Ġmarry": 2882,
      "Ġwanted": 2883,
      "Ġwondered": 2884,
      "ĠĠĠĠĠĠĠĠĠĠĠĠĠĠĠĠ": 2885,
      "Ġsounds": 2886,
      "relief": 2887,
      "Ġviol": 2888,
      "Ġannoy": 2889,
      "Ġbloss": 2890,
      "Ġcontinued": 2891,
      "Exit": 2892,
      "Ġcorner": 2893,
      "Ġfuture": 2894,
      "ĠCanterville": 2895,
      "'ll": 2896,
      "19": 2897,
      "For": 2898,
      "Miss": 2899,
      "cim": 2900,
      "fer": 2901,
      "rarque": 2902,
      "spe": 2903,
      "ught": 2904,
      "Ġsitting": 2905,
      "eds": 2906,
      "Ġcas": 2907,
      "Ġcap": 2908,
      "Ġfing": 2909,
      "Ġdut": 2910,
      "Ġdrove": 2911,
      "Ġdanger": 2912,
      "aster": 2913,
      "arse": 2914,
      "Ġpity": 2915,
      "Ġnatural": 2916,
      "Ġinfluence": 2917,
      "atory": 2918,
      "icular": 2919,
      "idered": 2920,
      "Ġwhi": 2921,
      "oose": 2922,
      "think": 2923,
      "thought": 2924,
      "ĠMRS": 2925,
      "Ġrais": 2926,
      "Ġsuis": 2927,
      "Ġleaves": 2928,
      "Ġarm": 2929,
      "ĠJE": 2930,
      "Ġpray": 2931,
      "Ġscene": 2932,
      "formed": 2933,
      "acht": 2934,
      "Ġregion": 2935,
      "Ġceased": 2936,
      "Ġbuild": 2937,
      "Ã©trarque": 2938,
      "Ġdiary": 2939,
      "Ġeffect": 2940,
      "Ġlearned": 2941,
      "Ġthoroughly": 2942,
      "Ġfascin": 2943,
      "Ġdisappoint": 2944,
      "At": 2945,
      "Good": 2946,
      "MONT": 2947,
      "course": 2948,
      "iver": 2949,
      "moment": 2950,
      "sy": 2951,
      "Ġtreat": 2952,
      "Ġsk": 2953,
      "Ġwit": 2954,
      "Ġwhar": 2955,
      "Ġmark": 2956,
      "Ġbright": 2957,
      "Ġborn": 2958,
      "Ġden": 2959,
      "lly": 2960,
      "Ġlocked": 2961,
      "aning": 2962,
      "Ġpit": 2963,
      "Ġpun": 2964,
      "atch": 2965,
      "lect": 2966,
      "Ġgas": 2967,
      "Ġghost": 2968,
      "ution": 2969,
      "stone": 2970,
      "Ġeight": 2971,
      "ident": 2972,
      "urch": 2973,
      "erence": 2974,
      "ament": 2975,
      "acy": 2976,
      "ĠCthulhu": 2977,
      "gend": 2978,
      "Ġrich": 2979,
      "Ġrise": 2980,
      "ĠBishop": 2981,
      "Ġneigh": 2982,
      "ĠDieu": 2983,
      "Ġsave": 2984,
      "Ġabnorm": 2985,
      "ounds": 2986,
      "itect": 2987,
      "igne": 2988,
      "----": 2989,
      "Ġcompl": 2990,
      "eps": 2991,
      "eping": 2992,
      "Ġbrain": 2993,
      "Ġdisg": 2994,
      "Ġglen": 2995,
      "Ġwritten": 2996,
      "Ġmarvell": 2997,
      "Ġgetting": 2998,
      "Ġvisible": 2999,
      "ĠWhateleys": 3000,
      "pring": 3001,
      "Ġaction": 3002,
      "ccess": 3003,
      "Ġpuzz": 3004,
      "Ġtouched": 3005,
      "Ġappeared": 3006,
      "Ġphrase": 3007,
      "CHASU": 3008,
      "Ġoccas": 3009,
      "Ġpainted": 3010,
      "Ġlaughing": 3011,
      "Ġmystery": 3012,
      "Ġwinter": 3013,
      "ĠDarlington": 3014,
      "Ġcigaret": 3015,
      "CHMONT": 3016,
      "ĠAgatha": 3017,
      "Ġsculptor": 3018,
      "CHASUBLE": 3019,
      "If": 3020,
      "fr": 3021,
      "know": 3022,
      "mar": 3023,
      "moi": 3024,
      "ned": 3025,
      "pers": 3026,
      "say": 3027,
      "sition": 3028,
      "yed": 3029,
      "Ġain": 3030,
      "Ġsilly": 3031,
      "itions": 3032,
      "Ġball": 3033,
      "anced": 3034,
      "Ġpure": 3035,
      "Ġpower": 3036,
      "Ġhy": 3037,
      "Ġhouses": 3038,
      "Ġhesit": 3039,
      "imney": 3040,
      "ids": 3041,
      "Ġsten": 3042,
      "Ġrud": 3043,
      "Ġfruit": 3044,
      "ĠBe": 3045,
      "Ġrock": 3046,
      "Ġarms": 3047,
      "Ġfever": 3048,
      "Ġgrown": 3049,
      "Ġpoet": 3050,
      "Ġposition": 3051,
      "osm": 3052,
      "osed": 3053,
      "reek": 3054,
      "Ġbecom": 3055,
      "Ġchimney": 3056,
      "Ġcrowd": 3057,
      "ensely": 3058,
      "Ġparty": 3059,
      "ternal": 3060,
      "attered": 3061,
      "Ġpolit": 3062,
      "Ġlisten": 3063,
      "Ġadmir": 3064,
      "Ġnameless": 3065,
      "Ġmountain": 3066,
      "Ġexperience": 3067,
      "Ġprofessors": 3068,
      "Ġsimple": 3069,
      "Ġbirds": 3070,
      "Ġfields": 3071,
      "An": 3072,
      "Cthulhu": 3073,
      "Lady": 3074,
      "So": 3075,
      "THE": 3076,
      "UN": 3077,
      "aved": 3078,
      "born": 3079,
      "cil": 3080,
      "came": 3081,
      "down": 3082,
      "ears": 3083,
      "good": 3084,
      "iven": 3085,
      "ls": 3086,
      "min": 3087,
      "Ġtrans": 3088,
      "Ġau": 3089,
      "rew": 3090,
      "Ġmaterial": 3091,
      "Ġfoot": 3092,
      "organ": 3093,
      "Ġtom": 3094,
      "arb": 3095,
      "Ġhung": 3096,
      "stood": 3097,
      "Ġthro": 3098,
      "rie": 3099,
      "ĠTu": 3100,
      "ĠThing": 3101,
      "Ġforward": 3102,
      "ĠCard": 3103,
      "ĠMAR": 3104,
      "Ġrain": 3105,
      "ĠGeor": 3106,
      "oles": 3107,
      "unk": 3108,
      "Ġshout": 3109,
      "ĠOs": 3110,
      "Ġwholly": 3111,
      "ounded": 3112,
      "owned": 3113,
      "Ġexcl": 3114,
      "Ġexquisite": 3115,
      "aker": 3116,
      "ILDON": 3117,
      "Ġroses": 3118,
      "ĠFry": 3119,
      "OND": 3120,
      "play": 3121,
      "Ġclim": 3122,
      "Ġbegun": 3123,
      "Ġmarriage": 3124,
      "ECOND": 3125,
      "Ġrespect": 3126,
      "phÃ¨": 3127,
      "Ġcharm": 3128,
      "Ġbelow": 3129,
      "Ġregret": 3130,
      "upon": 3131,
      "Ġclever": 3132,
      "Ġaccur": 3133,
      "ixed": 3134,
      "Ġfrightful": 3135,
      "duce": 3136,
      "ASILDON": 3137,
      "Ġmeeting": 3138,
      "ĠIndeed": 3139,
      "Ġmistake": 3140,
      "Ġwheel": 3141,
      "Ġflew": 3142,
      "ebruary": 3143,
      "Ġstopped": 3144,
      "Ġstench": 3145,
      "Ce": 3146,
      "cis": 3147,
      "just": 3148,
      "rid": 3149,
      "serv": 3150,
      "vous": 3151,
      "ĠÃ©": 3152,
      "Ġaunt": 3153,
      "inet": 3154,
      "Ġsought": 3155,
      "Ġsins": 3156,
      "Ġmuttered": 3157,
      "Ġbou": 3158,
      "Ġfat": 3159,
      "Ġfet": 3160,
      "Ġlan": 3161,
      "asure": 3162,
      "oted": 3163,
      "always": 3164,
      "riek": 3165,
      "Ġdel": 3166,
      "Ġrough": 3167,
      "ĠStreet": 3168,
      "Ġvulgar": 3169,
      "pean": 3170,
      "ords": 3171,
      "ĠEn": 3172,
      "Ġcouldn": 3173,
      "Ġarch": 3174,
      "Ġprob": 3175,
      "before": 3176,
      "Ġdisappe": 3177,
      "Ġtwenty": 3178,
      "Ġclub": 3179,
      "clud": 3180,
      "cope": 3181,
      "Ġrecogn": 3182,
      "Ġbroke": 3183,
      "Ġcarefully": 3184,
      "Ġmode": 3185,
      "Ġcurt": 3186,
      "Ġinteresting": 3187,
      "Ġempt": 3188,
      "Ġbox": 3189,
      "ĠSociety": 3190,
      "Ġdeterm": 3191,
      "world": 3192,
      "arently": 3193,
      "everything": 3194,
      "Ġspirit": 3195,
      "aimed": 3196,
      "Ġtype": 3197,
      "Ġvanished": 3198,
      "ĠCardew": 3199,
      "ĠMARCHMONT": 3200,
      "Cecily": 3201,
      "Of": 3202,
      "cum": 3203,
      "dition": 3204,
      "door": 3205,
      "gen": 3206,
      "hn": 3207,
      "ient": 3208,
      "lit": 3209,
      "long": 3210,
      "pond": 3211,
      "uge": 3212,
      "wind": 3213,
      "Ġutter": 3214,
      "Ġted": 3215,
      "inc": 3216,
      "Ġwarn": 3217,
      "iting": 3218,
      "itan": 3219,
      "ingale": 3220,
      "Ġtot": 3221,
      "asphe": 3222,
      "Ġpail": 3223,
      "lye": 3224,
      "rod": 3225,
      "tering": 3226,
      "iliar": 3227,
      "quoi": 3228,
      "ander": 3229,
      "Ġdefinite": 3230,
      "ĠSpring": 3231,
      "ĠBASILDON": 3232,
      "Ġlibrary": 3233,
      "unch": 3234,
      "Ġlegend": 3235,
      "ĠRice": 3236,
      "Ġconce": 3237,
      "cks": 3238,
      "cked": 3239,
      "Ġtrack": 3240,
      "abel": 3241,
      "Ġthinking": 3242,
      "Ġusual": 3243,
      "ples": 3244,
      "Ġpract": 3245,
      "beaut": 3246,
      "Ġafterward": 3247,
      "mma": 3248,
      "Ġwants": 3249,
      "Ġcru": 3250,
      "Ġcontr": 3251,
      "Ġsurpr": 3252,
      "ivid": 3253,
      "Ġsubtle": 3254,
      "Ġclearly": 3255,
      "rench": 3256,
      "Ġveux": 3257,
      "Ġgrace": 3258,
      "Ġinstinct": 3259,
      "Ġespe": 3260,
      "Ġdifficult": 3261,
      "Ġpurple": 3262,
      "Ġmorbid": 3263,
      "Ġcollege": 3264,
      "Ġdirection": 3265,
      "Ġsummer": 3266,
      "Ġpiece": 3267,
      "Ġburst": 3268,
      "coloured": 3269,
      "Ġvarious": 3270,
      "Ġexactly": 3271,
      "Ġschool": 3272,
      "Ġbreath": 3273,
      "ĠPerhaps": 3274,
      "Ġremembered": 3275,
      "Ġwhippoorwills": 3276,
      "Ġtedious": 3277,
      "AAN": 3278,
      "Emma": 3279,
      "II": 3280,
      "IO": 3281,
      "KAN": 3282,
      "Not": 3283,
      "UNE": 3284,
      "YRI": 3285,
      "awn": 3286,
      "dle": 3287,
      "een": 3288,
      "ger": 3289,
      "hold": 3290,
      "iet": 3291,
      "ips": 3292,
      "made": 3293,
      "pose": 3294,
      "ration": 3295,
      "table": 3296,
      "Ġaim": 3297,
      "reg": 3298,
      "rest": 3299,
      "really": 3300,
      "Ġmood": 3301,
      "ences": 3302,
      "Ġcattle": 3303,
      "once": 3304,
      "Ġpet": 3305,
      "Ġpage": 3306,
      "Ġgit": 3307,
      "set": 3308,
      "rium": 3309,
      "Ġrepe": 3310,
      "Ġforth": 3311,
      "Ġanxious": 3312,
      "ĠAunt": 3313,
      "amais": 3314,
      "ĠHad": 3315,
      "ĠHere": 3316,
      "Ġmeant": 3317,
      "Ġrum": 3318,
      "Ġritual": 3319,
      "ĠSYRI": 3320,
      "Ġsoft": 3321,
      "ĠGreat": 3322,
      "estions": 3323,
      "raph": 3324,
      "Ġjest": 3325,
      "Ġworse": 3326,
      "nect": 3327,
      "Ġfears": 3328,
      "Ġfeared": 3329,
      "Ġpeur": 3330,
      "Ġprofessor": 3331,
      "Ġmadness": 3332,
      "Ġdrew": 3333,
      "deus": 3334,
      "ainted": 3335,
      "cles": 3336,
      "uries": 3337,
      "haddeus": 3338,
      "cover": 3339,
      "Ġbrood": 3340,
      "Ġruin": 3341,
      "Ġcolours": 3342,
      "Ġguess": 3343,
      "Ġfriendship": 3344,
      "Ġfallen": 3345,
      "Ġtemper": 3346,
      "althy": 3347,
      "Ġdogs": 3348,
      "Ġfoolish": 3349,
      "seemed": 3350,
      "Ġvalue": 3351,
      "Ġamidst": 3352,
      "Ġpresence": 3353,
      "pathy": 3354,
      "ĠJEUNE": 3355,
      "Ġoccasion": 3356,
      "IOKAN": 3357,
      "ĠSYRIEN": 3358,
      "IOKANAAN": 3359,
      "',": 3360,
      "All": 3361,
      "Le": 3362,
      "bet": 3363,
      "bol": 3364,
      "iod": 3365,
      "mist": 3366,
      "na": 3367,
      "ric": 3368,
      "round": 3369,
      "sl": 3370,
      "tr": 3371,
      "tic": 3372,
      "vas": 3373,
      "yer": 3374,
      "yclo": 3375,
      "Ã¦": 3376,
      "Ġ(": 3377,
      "Ġtall": 3378,
      "ĠtÃ©trarque": 3379,
      "Ġaut": 3380,
      "Ġast": 3381,
      "Ġaout": 3382,
      "Ġses": 3383,
      "Ġslo": 3384,
      "oun": 3385,
      "Ġmir": 3386,
      "Ġmud": 3387,
      "Ġcy": 3388,
      "Ġcause": 3389,
      "Ġcosm": 3390,
      "Ġdared": 3391,
      "Ġdiv": 3392,
      "Ġlit": 3393,
      "Ġlot": 3394,
      "Ġhast": 3395,
      "Ġhell": 3396,
      "Ġgaz": 3397,
      "otion": 3398,
      "sec": 3399,
      "stance": 3400,
      "alty": 3401,
      "idently": 3402,
      "cell": 3403,
      "irth": 3404,
      "Ġaspect": 3405,
      "ache": 3406,
      "ĠWho": 3407,
      "ĠMan": 3408,
      "estig": 3409,
      "orey": 3410,
      "ĠBy": 3411,
      "Ġnecessary": 3412,
      "unate": 3413,
      "Ġshriek": 3414,
      "elf": 3415,
      "ĠIts": 3416,
      "Ġwouldn": 3417,
      "Ġplain": 3418,
      "Ġplaces": 3419,
      "Ġwear": 3420,
      "Ġweak": 3421,
      "Ġproved": 3422,
      "Ġbrittle": 3423,
      "redit": 3424,
      "Ġgreater": 3425,
      "Ġdise": 3426,
      "Ġterribly": 3427,
      "inted": 3428,
      "Ġperiod": 3429,
      "Ġolder": 3430,
      "Ġmonster": 3431,
      "ledge": 3432,
      "Ġmatters": 3433,
      "Ġhorrid": 3434,
      "Ġsecrets": 3435,
      "Ġinterested": 3436,
      "anything": 3437,
      "Ġduchess": 3438,
      "Ġflower": 3439,
      "Ġmoral": 3440,
      "Ġromance": 3441,
      "shall": 3442,
      "ĠKing": 3443,
      "Ġprincesse": 3444,
      "ength": 3445,
      "caped": 3446,
      "Ġlumin": 3447,
      "iversity": 3448,
      "Ġlonely": 3449,
      "Ġduty": 3450,
      "Ġmarvellous": 3451,
      "phÃ¨te": 3452,
      "Ġarchitect": 3453,
      "Ġempty": 3454,
      "'d": 3455,
      "Harry": 3456,
      "Look": 3457,
      "PREMIER": 3458,
      "Se": 3459,
      "TE": 3460,
      "cern": 3461,
      "fact": 3462,
      "much": 3463,
      "said": 3464,
      "yd": 3465,
      "zy": 3466,
      "Ġtin": 3467,
      "Ġsi": 3468,
      "Ġsink": 3469,
      "rey": 3470,
      "Ġought": 3471,
      "ital": 3472,
      "Ġment": 3473,
      "Ġmuff": 3474,
      "Ġcell": 3475,
      "Ġfaut": 3476,
      "Ġfully": 3477,
      "Ġdaughter": 3478,
      "Ġloud": 3479,
      "Ġpan": 3480,
      "Ġpaid": 3481,
      "Ġphys": 3482,
      "Ġinside": 3483,
      "omed": 3484,
      "atre": 3485,
      "Ġheath": 3486,
      "Ġyacht": 3487,
      "Ġones": 3488,
      "adm": 3489,
      "irty": 3490,
      "urred": 3491,
      "Ġstore": 3492,
      "ĠCl": 3493,
      "Ġmel": 3494,
      "illage": 3495,
      "ulf": 3496,
      "Ġvin": 3497,
      "ĠLove": 3498,
      "Ġlie": 3499,
      "antly": 3500,
      "Ġnoises": 3501,
      "istic": 3502,
      "Ġanybody": 3503,
      "onder": 3504,
      "Ġaff": 3505,
      "new": 3506,
      "rance": 3507,
      "ishment": 3508,
      "Ġprim": 3509,
      "Ġflung": 3510,
      "orrid": 3511,
      "orses": 3512,
      "Ġattention": 3513,
      "versation": 3514,
      "Ġdarkness": 3515,
      "Ġrecord": 3516,
      "awd": 3517,
      "Ġwatched": 3518,
      "Ġbuilt": 3519,
      "Ġsunlight": 3520,
      "Ġpropose": 3521,
      "Ġexcited": 3522,
      "Ġfaith": 3523,
      "Ġdrink": 3524,
      "served": 3525,
      "Ġdiscovered": 3526,
      "Ġdawn": 3527,
      "Ġpriv": 3528,
      "amma": 3529,
      "Ġcompletely": 3530,
      "Ġbeginning": 3531,
      "Ġrustics": 3532,
      "Ġintellect": 3533,
      "Ġlanguage": 3534,
      "Ġcigarette": 3535,
      "Ġlantern": 3536,
      "lyeh": 3537,
      "!\"": 3538,
      ",'": 3539,
      "Is": 3540,
      "IEN": 3541,
      "PARKER": 3542,
      "SC": 3543,
      "SECOND": 3544,
      "did": 3545,
      "dist": 3546,
      "eople": 3547,
      "fit": 3548,
      "first": 3549,
      "gu": 3550,
      "gent": 3551,
      "ners": 3552,
      "port": 3553,
      "rat": 3554,
      "rim": 3555,
      "ti": 3556,
      "too": 3557,
      "vious": 3558,
      "Ġici": 3559,
      "inister": 3560,
      "Ġshed": 3561,
      "Ġsister": 3562,
      "rent": 3563,
      "Ġwis": 3564,
      "Ġwicked": 3565,
      "Ġbug": 3566,
      "Ġcaught": 3567,
      "Ġfo": 3568,
      "Ġfro": 3569,
      "oration": 3570,
      "Ġdro": 3571,
      "Ġlune": 3572,
      "ances": 3573,
      "Ġpink": 3574,
      "ĠIokanaan": 3575,
      "Ġhang": 3576,
      "Ġstair": 3577,
      "Ġhist": 3578,
      "terrible": 3579,
      "ĠHill": 3580,
      "ĠCast": 3581,
      "ilosop": 3582,
      "Ġsearch": 3583,
      "ĠMorgan": 3584,
      "Ġsuc": 3585,
      "Ġallowed": 3586,
      "people": 3587,
      "olved": 3588,
      "Ġshut": 3589,
      "Ġkne": 3590,
      "aste": 3591,
      "ĠNe": 3592,
      "ĠNever": 3593,
      "ptember": 3594,
      "Ġconfess": 3595,
      "ĠElle": 3596,
      "aux": 3597,
      "agon": 3598,
      "Ġworship": 3599,
      "Ġspo": 3600,
      "Ġspread": 3601,
      "Ġpeut": 3602,
      "Ġscandal": 3603,
      "Ġwindows": 3604,
      "ground": 3605,
      "Ġpleasant": 3606,
      "appy": 3607,
      "Ġactually": 3608,
      "Ġrecall": 3609,
      "Ġsounded": 3610,
      "Ġcuriously": 3611,
      "Ġsensitive": 3612,
      "Ġcoat": 3613,
      "Ġident": 3614,
      "Ġfinally": 3615,
      "Ġfinished": 3616,
      "....\"": 3617,
      "Ġreturned": 3618,
      "rupt": 3619,
      "Ġmoved": 3620,
      "ĠDuke": 3621,
      "Armitage": 3622,
      "Ġsympathy": 3623,
      "Ġpapers": 3624,
      "Ġavec": 3625,
      "ĠParis": 3626,
      "while": 3627,
      "Ġrespons": 3628,
      "Ġfingers": 3629,
      "Ġneighb": 3630,
      "igneur": 3631,
      "front": 3632,
      "ĠGeorge": 3633,
      "ĠFrye": 3634,
      "Ġespecially": 3635,
      "Ġbuggy": 3636,
      ".'": 3637,
      "Do": 3638,
      "HO": 3639,
      "ech": 3640,
      "eenth": 3641,
      "gon": 3642,
      "jo": 3643,
      "tar": 3644,
      "wood": 3645,
      "wild": 3646,
      "Ã¹": 3647,
      "Ġav": 3648,
      "Ġsick": 3649,
      "Ġsang": 3650,
      "Ġscient": 3651,
      "Ġmain": 3652,
      "Ġbott": 3653,
      "onic": 3654,
      "Ġdate": 3655,
      "Ġdying": 3656,
      "Ġlines": 3657,
      "Ġlength": 3658,
      "Ġpath": 3659,
      "Ġinf": 3660,
      "atives": 3661,
      "left": 3662,
      "Ġbeat": 3663,
      "search": 3664,
      "Ġthin": 3665,
      "Ġrequ": 3666,
      "Ġstro": 3667,
      "Ġstop": 3668,
      "Ġstones": 3669,
      "Ġstrang": 3670,
      "ĠCertainly": 3671,
      "ths": 3672,
      "Ġdef": 3673,
      "Ġdepend": 3674,
      "ĠMabel": 3675,
      "Ġvap": 3676,
      "ĠLa": 3677,
      "Ġkilled": 3678,
      "olith": 3679,
      "Ġsail": 3680,
      "ante": 3681,
      "Ġshudd": 3682,
      "ĠPark": 3683,
      "Ġupstairs": 3684,
      "Ġconf": 3685,
      "love": 3686,
      "Ġyours": 3687,
      "erty": 3688,
      "Ġworst": 3689,
      "Ġroof": 3690,
      "ishon": 3691,
      "ĠFrench": 3692,
      "Ġimpress": 3693,
      "aby": 3694,
      "Ġusually": 3695,
      "Ġblind": 3696,
      "Ġblasted": 3697,
      "Ġpress": 3698,
      "Ġterms": 3699,
      "Ġmonolith": 3700,
      "Ġspecim": 3701,
      "Ġspeech": 3702,
      "Ġadded": 3703,
      "Ġchrist": 3704,
      "izard": 3705,
      "Ġstrangely": 3706,
      "Ġreserv": 3707,
      "Ġtele": 3708,
      "Ġsilent": 3709,
      "Ġformed": 3710,
      "Ġhorribly": 3711,
      "Ġturning": 3712,
      "expl": 3713,
      "Ġreport": 3714,
      "Ġplayed": 3715,
      "medi": 3716,
      "Ġcrew": 3717,
      "Ġcrept": 3718,
      "Ġcountryside": 3719,
      "Ġsenses": 3720,
      "Ãªtre": 3721,
      "Ġcollect": 3722,
      "Ġincre": 3723,
      "Ġgeneral": 3724,
      "Ġgenius": 3725,
      "Ġdevil": 3726,
      "Ġoriginal": 3727,
      "Ġpossibly": 3728,
      "Ġmedical": 3729,
      "Ġheavens": 3730,
      "Ġdevelop": 3731,
      "Ġreceived": 3732,
      "Ġforgotten": 3733,
      "Ġpeculiar": 3734,
      "Ġnumber": 3735,
      "Ġnervous": 3736,
      "Ġcases": 3737,
      "Ġdangerous": 3738,
      "Ġaccursed": 3739,
      "yclopean": 3740,
      "ĠCastro": 3741,
      "Ġreservoir": 3742,
      "GAT": 3743,
      "IC": 3744,
      "Ill": 3745,
      "Pr": 3746,
      "Qu": 3747,
      "ables": 3748,
      "barrow": 3749,
      "cont": 3750,
      "dri": 3751,
      "hod": 3752,
      "mes": 3753,
      "mare": 3754,
      "make": 3755,
      "sur": 3756,
      "tell": 3757,
      "uis": 3758,
      "Ã»": 3759,
      "ĠX": 3760,
      "Ġtim": 3761,
      "Ġtel": 3762,
      "inel": 3763,
      "Ġsour": 3764,
      "Ġsouth": 3765,
      "Ġscience": 3766,
      "Ġsacrif": 3767,
      "Ġobl": 3768,
      "hall": 3769,
      "itement": 3770,
      "Ġmamma": 3771,
      "Ġbound": 3772,
      "Ġbod": 3773,
      "Ġbran": 3774,
      "Ġbark": 3775,
      "Ġcard": 3776,
      "Ġnarrow": 3777,
      "Ġholl": 3778,
      "Ġhund": 3779,
      "Ġears": 3780,
      "alous": 3781,
      "alities": 3782,
      "ented": 3783,
      "Ġisland": 3784,
      "irm": 3785,
      "ĠAGAT": 3786,
      "aching": 3787,
      "ĠHappy": 3788,
      "ĠCome": 3789,
      "ĠWhe": 3790,
      "ĠWill": 3791,
      "those": 3792,
      "ĠMinister": 3793,
      "Ġva": 3794,
      "Ġsuccess": 3795,
      "ĠDid": 3796,
      "uses": 3797,
      "Ġshot": 3798,
      "ĠPour": 3799,
      "ptic": 3800,
      "Ġplaced": 3801,
      "ĠFebruary": 3802,
      "abb": 3803,
      "arkby": 3804,
      "Ġshoulders": 3805,
      "being": 3806,
      "began": 3807,
      "urned": 3808,
      "Ġenc": 3809,
      "Ġremains": 3810,
      "Ġaddress": 3811,
      "Ġenter": 3812,
      "ogly": 3813,
      "ÃīEN": 3814,
      "airfa": 3815,
      "ception": 3816,
      "ĠHowever": 3817,
      "Ġcloak": 3818,
      "Ġgiving": 3819,
      "unted": 3820,
      "aws": 3821,
      "Ġgolden": 3822,
      "Ġideal": 3823,
      "ampbell": 3824,
      "Ġhours": 3825,
      "Ġsuffered": 3826,
      "ĠSeptember": 3827,
      "Ġforeign": 3828,
      "Ġrien": 3829,
      "formation": 3830,
      "Ã©sar": 3831,
      "Ġclouds": 3832,
      "ĠReally": 3833,
      "Ġarrived": 3834,
      "Ġpaper": 3835,
      "Ġprinci": 3836,
      "Ġdescribed": 3837,
      "Ġscarlet": 3838,
      "Ġextraordinary": 3839,
      "Ġhigher": 3840,
      "Ġcopy": 3841,
      "Ġfolk": 3842,
      "Ġhonour": 3843,
      "ĠNightingale": 3844,
      "Ġdestro": 3845,
      "extra": 3846,
      "Ġblossoms": 3847,
      "Ġthroat": 3848,
      "Ġexclaimed": 3849,
      "Ġstaircase": 3850,
      "Ġsucceed": 3851,
      "Ġteles": 3852,
      "Ġhundred": 3853,
      "ĠAGATHA": 3854,
      "airfax": 3855,
      "Jo": 3856,
      "Let": 3857,
      "_)": 3858,
      "_]": 3859,
      "book": 3860,
      "both": 3861,
      "dra": 3862,
      "friend": 3863,
      "kat": 3864,
      "talk": 3865,
      "vial": 3866,
      "wat": 3867,
      "wise": 3868,
      "Ġess": 3869,
      "Ġign": 3870,
      "Ġtakes": 3871,
      "Ġtaught": 3872,
      "Ġsigh": 3873,
      "reed": 3874,
      "real": 3875,
      "Ġopp": 3876,
      "Ġmess": 3877,
      "Ġmour": 3878,
      "Ġbul": 3879,
      "Ġbrill": 3880,
      "edin": 3881,
      "Ġfer": 3882,
      "Ġfit": 3883,
      "Ġfair": 3884,
      "oral": 3885,
      "Ġdishon": 3886,
      "ancy": 3887,
      "Ġnice": 3888,
      "Ġinfinite": 3889,
      "Ġhuge": 3890,
      "ata": 3891,
      "leep": 3892,
      "lying": 3893,
      "otre": 3894,
      "Ġthick": 3895,
      "cend": 3896,
      "ĠTHE": 3897,
      "roduce": 3898,
      "Ġforced": 3899,
      "Ġstar": 3900,
      "Ġstories": 3901,
      "terday": 3902,
      "Ġnotice": 3903,
      "Ġnoticed": 3904,
      "ĠHo": 3905,
      "ĠChar": 3906,
      "ĠCÃ©sar": 3907,
      "âĢĿ;": 3908,
      "ili": 3909,
      "ilight": 3910,
      "Ġdecl": 3911,
      "Ġsoil": 3912,
      "rave": 3913,
      "Ġaband": 3914,
      "ĠOur": 3915,
      "Ġunn": 3916,
      "ational": 3917,
      "Ġconvin": 3918,
      "Ġconversation": 3919,
      "ieve": 3920,
      "ĠEdition": 3921,
      "Ġjew": 3922,
      "oped": 3923,
      "ĠJames": 3924,
      "Ġpeace": 3925,
      "ĠprophÃ¨te": 3926,
      "ĠFairfax": 3927,
      "aper": 3928,
      "Ġdesire": 3929,
      "Ġclot": 3930,
      "icken": 3931,
      "teen": 3932,
      "lessness": 3933,
      "onsense": 3934,
      "uriosity": 3935,
      "Ġrooms": 3936,
      "ails": 3937,
      "Ġtext": 3938,
      "comm": 3939,
      "Ġdistance": 3940,
      "Ġdistinct": 3941,
      "Ġrule": 3942,
      "Ġruins": 3943,
      "Ġaccord": 3944,
      "awyer": 3945,
      "himself": 3946,
      "Ġguests": 3947,
      "ĠAlan": 3948,
      "Ġescaped": 3949,
      "ĠJohn": 3950,
      "Ġrelations": 3951,
      "Ġregarder": 3952,
      "Ġcutt": 3953,
      "Ġvient": 3954,
      "ology": 3955,
      "ological": 3956,
      "Ġsymbol": 3957,
      "Ġstirred": 3958,
      "Ġwalls": 3959,
      "Ġsuggestion": 3960,
      "ĠNothing": 3961,
      "Ġdrawing": 3962,
      "Ġdomin": 3963,
      "Ġpuzzled": 3964,
      "arborough": 3965,
      "ĠTuppy": 3966,
      "Ġdetermined": 3967,
      "cellent": 3968,
      "Illust": 3969,
      "katonic": 3970,
      "CIEN": 3971,
      "OCIEN": 3972,
      "_\"": 3973,
      "even": 3974,
      "gic": 3975,
      "gone": 3976,
      "jours": 3977,
      "lt": 3978,
      "lau": 3979,
      "might": 3980,
      "pet": 3981,
      "pie": 3982,
      "prop": 3983,
      "sil": 3984,
      "vant": 3985,
      "wait": 3986,
      "ys": 3987,
      "Ġvers": 3988,
      "iner": 3989,
      "Ġwa": 3990,
      "Ġwished": 3991,
      "Ġcro": 3992,
      "Ġcalm": 3993,
      "Ġfed": 3994,
      "lled": 3995,
      "Ġlose": 3996,
      "asily": 3997,
      "anation": 3998,
      "Ġpa": 3999,
      "Ġhabit": 4000,
      "icem": 4001,
      "icate": 4002,
      "idge": 4003,
      "entinel": 4004,
      "cely": 4005,
      "Ġupper": 4006,
      "ioned": 4007,
      "Ġanim": 4008,
      "Ġaside": 4009,
      "ĠCorey": 4010,
      "ĠWater": 4011,
      "thy": 4012,
      "three": 4013,
      "ills": 4014,
      "Ġseason": 4015,
      "keep": 4016,
      "ousand": 4017,
      "child": 4018,
      "Ġrou": 4019,
      "ĠLane": 4020,
      "ored": 4021,
      "ĠDE": 4022,
      "Ġquickly": 4023,
      "using": 4024,
      "ĠON": 4025,
      "Ġleap": 4026,
      "Ġleaving": 4027,
      "ADOCIEN": 4028,
      "Ġcanvas": 4029,
      "Ġspl": 4030,
      "blood": 4031,
      "Ġtrad": 4032,
      "ĠFran": 4033,
      "Ġblasphe": 4034,
      "bec": 4035,
      "Ġseeing": 4036,
      "Ġscreen": 4037,
      "Ġflame": 4038,
      "ĠArt": 4039,
      "Ġsmiled": 4040,
      "Ġpassions": 4041,
      "white": 4042,
      "Ġunderstood": 4043,
      "ictor": 4044,
      "Ġbelong": 4045,
      "Ġformul": 4046,
      "poss": 4047,
      "Ġquiet": 4048,
      "Ġstruck": 4049,
      "Ġtrace": 4050,
      "ĠCAPP": 4051,
      "MAN": 4052,
      "Ġguard": 4053,
      "respond": 4054,
      "Ġcarried": 4055,
      "oking": 4056,
      "Ġreflect": 4057,
      "Ġcoarse": 4058,
      "Ġlistened": 4059,
      "Ġlistening": 4060,
      "argent": 4061,
      "Ġpurpose": 4062,
      "hole": 4063,
      "Ġforgive": 4064,
      "Ġdirect": 4065,
      "Ġoddly": 4066,
      "Ġmalign": 4067,
      "Ġtrembling": 4068,
      "ĠUniversity": 4069,
      "spector": 4070,
      "Ġstudy": 4071,
      "Ġfarmhouse": 4072,
      "Ġservant": 4073,
      "Ġscarcely": 4074,
      "compan": 4075,
      "chers": 4076,
      "Ġfalse": 4077,
      "Ġstatue": 4078,
      "ĠGlen": 4079,
      "iveness": 4080,
      "Ġwheelbarrow": 4081,
      "Ġbouche": 4082,
      "ydney": 4083,
      "Ġmental": 4084,
      "riman": 4085,
      "ĠPourquoi": 4086,
      "Illustration": 4087,
      "ĠCAPPADOCIEN": 4088,
      "AZ": 4089,
      "Ch": 4090,
      "Every": 4091,
      "Soth": 4092,
      "Your": 4093,
      "bul": 4094,
      "bable": 4095
    },
    "merges": [
      [
        "Ġ",
        "t"
      ],
      [
        "h",
        "e"
      ],
      [
        "Ġ",
        "a"
      ],
      [
        "i",
        "n"
      ],
      [
        "Ġ",
        "s"
      ],
      [
        "Ġt",
        "he"
      ],
      [
        "r",
        "e"
      ],
      [
        "Ġ",
        "w"
      ],
      [
        "Ġ",
        "o"
      ],
      [
        "h",
        "a"
      ],
      [
        "o",
        "u"
      ],
      [
        "n",
        "d"
      ],
      [
        "e",
        "r"
      ],
      [
        "i",
        "t"
      ],
      [
        "Ġ",
        "m"
      ],
      [
        "i",
        "s"
      ],
      [
        "Ġ",
        "b"
      ],
      [
        "e",
        "n"
      ],
      [
        "e",
        "d"
      ],
      [
        "Ġ",
        "c"
      ],
      [
        "in",
        "g"
      ],
      [
        "Ġ",
        "f"
      ],
      [
        "o",
        "r"
      ],
      [
        "o",
        "n"
      ],
      [
        "e",
        "s"
      ],
      [
        "Ġ",
        "d"
      ],
      [
        "Ġo",
        "f"
      ],
      [
        "Ġa",
        "nd"
      ],
      [
        "Ġt",
        "o"
      ],
      [
        "l",
        "l"
      ],
      [
        "â",
        "Ģ"
      ],
      [
        "Ġ",
        "l"
      ],
      [
        "a",
        "s"
      ],
      [
        "a",
        "r"
      ],
      [
        "a",
        "n"
      ],
      [
        "Ġ",
        "p"
      ],
      [
        "Ġ",
        "I"
      ],
      [
        "Ġ",
        "n"
      ],
      [
        "Ġ",
        "in"
      ],
      [
        "ha",
        "t"
      ],
      [
        "Ġ",
        "h"
      ],
      [
        "o",
        "m"
      ],
      [
        "Ġ",
        "ha"
      ],
      [
        "a",
        "t"
      ],
      [
        "l",
        "e"
      ],
      [
        "Ġ",
        "he"
      ],
      [
        "o",
        "w"
      ],
      [
        "Ġ",
        "g"
      ],
      [
        "v",
        "e"
      ],
      [
        "Ġb",
        "e"
      ],
      [
        "l",
        "y"
      ],
      [
        "Ġ",
        "y"
      ],
      [
        "o",
        "t"
      ],
      [
        "l",
        "d"
      ],
      [
        "s",
        "e"
      ],
      [
        "i",
        "c"
      ],
      [
        "u",
        "t"
      ],
      [
        "s",
        "t"
      ],
      [
        "Ġy",
        "ou"
      ],
      [
        "Ġt",
        "hat"
      ],
      [
        "Ġ",
        "e"
      ],
      [
        "i",
        "m"
      ],
      [
        "Ġ",
        "it"
      ],
      [
        "g",
        "h"
      ],
      [
        "Ġo",
        "n"
      ],
      [
        "a",
        "l"
      ],
      [
        "v",
        "er"
      ],
      [
        "Ġw",
        "as"
      ],
      [
        "i",
        "d"
      ],
      [
        "Ġt",
        "h"
      ],
      [
        "a",
        "y"
      ],
      [
        "en",
        "t"
      ],
      [
        "Ġ",
        "is"
      ],
      [
        "e",
        "t"
      ],
      [
        "c",
        "e"
      ],
      [
        "âĢ",
        "Ļ"
      ],
      [
        "r",
        "i"
      ],
      [
        "Ġ",
        "re"
      ],
      [
        "a",
        "d"
      ],
      [
        "Ġ",
        "T"
      ],
      [
        "Ġ",
        "u"
      ],
      [
        "i",
        "on"
      ],
      [
        "r",
        "o"
      ],
      [
        "i",
        "r"
      ],
      [
        "gh",
        "t"
      ],
      [
        "Ġha",
        "d"
      ],
      [
        "it",
        "h"
      ],
      [
        "Ġw",
        "h"
      ],
      [
        "Ġf",
        "or"
      ],
      [
        "u",
        "r"
      ],
      [
        "Ġs",
        "t"
      ],
      [
        "Ġa",
        "n"
      ],
      [
        "e",
        "re"
      ],
      [
        "Ġa",
        "s"
      ],
      [
        "Ġ",
        "A"
      ],
      [
        "Ġh",
        "is"
      ],
      [
        "Ġ",
        "Ġ"
      ],
      [
        "t",
        "er"
      ],
      [
        "Ġn",
        "ot"
      ],
      [
        "E",
        "R"
      ],
      [
        "a",
        "m"
      ],
      [
        "a",
        "c"
      ],
      [
        "Ġ",
        "H"
      ],
      [
        "Ġ",
        "C"
      ],
      [
        "Ġw",
        "ith"
      ],
      [
        "o",
        "o"
      ],
      [
        "Ġa",
        "t"
      ],
      [
        "ou",
        "ld"
      ],
      [
        "âĢ",
        "ľ"
      ],
      [
        "Ġ",
        "W"
      ],
      [
        "t",
        "h"
      ],
      [
        "Ġm",
        "e"
      ],
      [
        "âĢ",
        "Ŀ"
      ],
      [
        "i",
        "l"
      ],
      [
        "q",
        "u"
      ],
      [
        "i",
        "f"
      ],
      [
        "i",
        "ll"
      ],
      [
        "Ġs",
        "e"
      ],
      [
        "a",
        "nd"
      ],
      [
        "k",
        "e"
      ],
      [
        "a",
        "ll"
      ],
      [
        "t",
        "he"
      ],
      [
        "ĠT",
        "he"
      ],
      [
        "Ġd",
        "e"
      ],
      [
        "a",
        "in"
      ],
      [
        "ou",
        "s"
      ],
      [
        "Ġ",
        "M"
      ],
      [
        "u",
        "l"
      ],
      [
        "om",
        "e"
      ],
      [
        "Ġha",
        "ve"
      ],
      [
        "g",
        "e"
      ],
      [
        "c",
        "h"
      ],
      [
        "Ġ",
        "r"
      ],
      [
        "Ġh",
        "im"
      ],
      [
        "Ġ",
        "S"
      ],
      [
        "es",
        "s"
      ],
      [
        "Ġs",
        "o"
      ],
      [
        "Ġ",
        "v"
      ],
      [
        "c",
        "t"
      ],
      [
        "i",
        "ght"
      ],
      [
        "e",
        "ll"
      ],
      [
        "Ġf",
        "r"
      ],
      [
        "Ġ",
        "G"
      ],
      [
        "Ġs",
        "u"
      ],
      [
        "Ġ",
        "L"
      ],
      [
        "Ġ",
        "k"
      ],
      [
        "b",
        "le"
      ],
      [
        "Ġm",
        "y"
      ],
      [
        "es",
        "t"
      ],
      [
        "Ġa",
        "ll"
      ],
      [
        "o",
        "re"
      ],
      [
        "Ġ",
        "B"
      ],
      [
        "Ġn",
        "e"
      ],
      [
        "p",
        "e"
      ],
      [
        "Ġ",
        "D"
      ],
      [
        "ar",
        "d"
      ],
      [
        "Ġon",
        "e"
      ],
      [
        "ver",
        "y"
      ],
      [
        "O",
        "R"
      ],
      [
        "ou",
        "t"
      ],
      [
        "Ġd",
        "o"
      ],
      [
        "Ġhe",
        "r"
      ],
      [
        "e",
        "m"
      ],
      [
        "o",
        "l"
      ],
      [
        "Ġl",
        "i"
      ],
      [
        "u",
        "st"
      ],
      [
        "Ġ",
        "qu"
      ],
      [
        "r",
        "a"
      ],
      [
        "he",
        "r"
      ],
      [
        "u",
        "s"
      ],
      [
        ".",
        "]"
      ],
      [
        "Ġa",
        "re"
      ],
      [
        "Ġs",
        "a"
      ],
      [
        "r",
        "y"
      ],
      [
        "an",
        "t"
      ],
      [
        "Ġfr",
        "om"
      ],
      [
        "u",
        "n"
      ],
      [
        "ou",
        "r"
      ],
      [
        "Ġa",
        "b"
      ],
      [
        "p",
        "p"
      ],
      [
        "Ġ",
        "_"
      ],
      [
        "in",
        "d"
      ],
      [
        "ic",
        "h"
      ],
      [
        "Ġs",
        "h"
      ],
      [
        "t",
        "o"
      ],
      [
        "e",
        "l"
      ],
      [
        "Ġn",
        "o"
      ],
      [
        "ĠI",
        "t"
      ],
      [
        "Ġb",
        "ut"
      ],
      [
        "Ġk",
        "n"
      ],
      [
        "u",
        "re"
      ],
      [
        "Ġ",
        "O"
      ],
      [
        "is",
        "t"
      ],
      [
        "he",
        "n"
      ],
      [
        "s",
        "s"
      ],
      [
        "Ġwh",
        "o"
      ],
      [
        "Ġa",
        "m"
      ],
      [
        "u",
        "m"
      ],
      [
        "Ġw",
        "ere"
      ],
      [
        "ou",
        "nd"
      ],
      [
        "Ġb",
        "y"
      ],
      [
        "Ġ",
        "Y"
      ],
      [
        "ha",
        "n"
      ],
      [
        "ĠĠ",
        "ĠĠ"
      ],
      [
        "ow",
        "n"
      ],
      [
        "Ġo",
        "r"
      ],
      [
        "it",
        "e"
      ],
      [
        "Ġu",
        "n"
      ],
      [
        "oo",
        "k"
      ],
      [
        "Ġthe",
        "y"
      ],
      [
        "oo",
        "d"
      ],
      [
        "on",
        "e"
      ],
      [
        "Ġl",
        "e"
      ],
      [
        "l",
        "f"
      ],
      [
        "Ġe",
        "x"
      ],
      [
        "Ġa",
        "l"
      ],
      [
        "or",
        "d"
      ],
      [
        "as",
        "t"
      ],
      [
        "Ġw",
        "hat"
      ],
      [
        "I",
        "N"
      ],
      [
        "ou",
        "gh"
      ],
      [
        ".",
        "âĢĿ"
      ],
      [
        "er",
        "s"
      ],
      [
        "h",
        "ing"
      ],
      [
        "Ġ",
        "N"
      ],
      [
        "[",
        "_"
      ],
      [
        "Ġ",
        "P"
      ],
      [
        "Ġwh",
        "ich"
      ],
      [
        "a",
        "re"
      ],
      [
        "Ġm",
        "an"
      ],
      [
        "Ġo",
        "ut"
      ],
      [
        "at",
        "ion"
      ],
      [
        "Ġ",
        "."
      ],
      [
        "Ġw",
        "ould"
      ],
      [
        "ac",
        "k"
      ],
      [
        "Ġbe",
        "en"
      ],
      [
        "w",
        "ay"
      ],
      [
        "am",
        "e"
      ],
      [
        "OR",
        "D"
      ],
      [
        "ĠH",
        "e"
      ],
      [
        "Ġu",
        "p"
      ],
      [
        "a",
        "k"
      ],
      [
        "Ġ",
        "R"
      ],
      [
        "Ġg",
        "o"
      ],
      [
        "if",
        "e"
      ],
      [
        "'",
        "s"
      ],
      [
        "c",
        "i"
      ],
      [
        "I",
        "L"
      ],
      [
        "Ġan",
        "y"
      ],
      [
        "Ġthe",
        "re"
      ],
      [
        "v",
        "en"
      ],
      [
        "Ġth",
        "ing"
      ],
      [
        "o",
        "nd"
      ],
      [
        "i",
        "g"
      ],
      [
        "p",
        "t"
      ],
      [
        "Ġc",
        "on"
      ],
      [
        "l",
        "o"
      ],
      [
        "Ġs",
        "ome"
      ],
      [
        "it",
        "y"
      ],
      [
        "on",
        "g"
      ],
      [
        "he",
        "d"
      ],
      [
        "at",
        "e"
      ],
      [
        "i",
        "e"
      ],
      [
        "ere",
        "d"
      ],
      [
        "_",
        ".]"
      ],
      [
        "i",
        "ve"
      ],
      [
        "ER",
        "N"
      ],
      [
        "L",
        "ORD"
      ],
      [
        "it",
        "t"
      ],
      [
        "ĠC",
        "H"
      ],
      [
        "Ġab",
        "out"
      ],
      [
        "Ġ",
        "âĢľ"
      ],
      [
        "o",
        "st"
      ],
      [
        "id",
        "e"
      ],
      [
        "all",
        "y"
      ],
      [
        "re",
        "at"
      ],
      [
        "Ġ",
        "E"
      ],
      [
        "Ġth",
        "is"
      ],
      [
        "Ġ",
        "[_"
      ],
      [
        "Ġthe",
        "m"
      ],
      [
        "Ġ",
        "very"
      ],
      [
        "Ġ",
        "j"
      ],
      [
        "Ġs",
        "he"
      ],
      [
        "Ġyou",
        "r"
      ],
      [
        "in",
        "k"
      ],
      [
        "Ġli",
        "ke"
      ],
      [
        "a",
        "u"
      ],
      [
        "a",
        "g"
      ],
      [
        "i",
        "an"
      ],
      [
        "se",
        "lf"
      ],
      [
        "Ġkn",
        "ow"
      ],
      [
        "c",
        "k"
      ],
      [
        "Ġsa",
        "id"
      ],
      [
        "Ã",
        "©"
      ],
      [
        "ĠY",
        "ou"
      ],
      [
        "ar",
        "t"
      ],
      [
        "-",
        "-"
      ],
      [
        "o",
        "p"
      ],
      [
        "er",
        "t"
      ],
      [
        "Ġha",
        "s"
      ],
      [
        "Ġa",
        "f"
      ],
      [
        "A",
        "D"
      ],
      [
        "o",
        "ve"
      ],
      [
        "T",
        "he"
      ],
      [
        "Ġp",
        "l"
      ],
      [
        "a",
        "ce"
      ],
      [
        "Ġw",
        "or"
      ],
      [
        "Ġc",
        "om"
      ],
      [
        ",",
        "âĢĿ"
      ],
      [
        "Ġc",
        "an"
      ],
      [
        "o",
        "d"
      ],
      [
        "n",
        "e"
      ],
      [
        "Ġc",
        "ould"
      ],
      [
        "i",
        "re"
      ],
      [
        "Ġw",
        "ill"
      ],
      [
        "Ġ",
        "ro"
      ],
      [
        "Ġa",
        "r"
      ],
      [
        "as",
        "s"
      ],
      [
        "Ġw",
        "e"
      ],
      [
        "o",
        "f"
      ],
      [
        "Ġf",
        "e"
      ],
      [
        "or",
        "t"
      ],
      [
        "Ġw",
        "hen"
      ],
      [
        "AD",
        "Y"
      ],
      [
        "Ġl",
        "ook"
      ],
      [
        "Ġ",
        "J"
      ],
      [
        "Ġs",
        "p"
      ],
      [
        "r",
        "an"
      ],
      [
        "âĢ",
        "Ķ"
      ],
      [
        "th",
        "ing"
      ],
      [
        "a",
        "ge"
      ],
      [
        "a",
        "ble"
      ],
      [
        "Ġg",
        "r"
      ],
      [
        "Ġp",
        "o"
      ],
      [
        "is",
        "h"
      ],
      [
        "o",
        "se"
      ],
      [
        "f",
        "ul"
      ],
      [
        "u",
        "d"
      ],
      [
        "Ġs",
        "ha"
      ],
      [
        "Ġn",
        "ow"
      ],
      [
        "L",
        "ADY"
      ],
      [
        "Ġthe",
        "ir"
      ],
      [
        "Ġl",
        "ife"
      ],
      [
        "b",
        "l"
      ],
      [
        "Ġin",
        "to"
      ],
      [
        "Ġt",
        "r"
      ],
      [
        "Ġp",
        "e"
      ],
      [
        "im",
        "e"
      ],
      [
        "n",
        "t"
      ],
      [
        "Ġa",
        "g"
      ],
      [
        "Ġm",
        "ore"
      ],
      [
        "Ġd",
        "on"
      ],
      [
        "ou",
        "ght"
      ],
      [
        "Ġp",
        "ro"
      ],
      [
        "T",
        "ERN"
      ],
      [
        ".",
        "."
      ],
      [
        "e",
        "ct"
      ],
      [
        "IL",
        "TERN"
      ],
      [
        "e",
        "p"
      ],
      [
        "Ġb",
        "r"
      ],
      [
        "ĠCH",
        "ILTERN"
      ],
      [
        "Ġm",
        "ust"
      ],
      [
        "Ġon",
        "ly"
      ],
      [
        "Ġ",
        "F"
      ],
      [
        "Ġne",
        "ver"
      ],
      [
        "itt",
        "le"
      ],
      [
        "en",
        "ce"
      ],
      [
        "e",
        "nd"
      ],
      [
        "re",
        "d"
      ],
      [
        "Ġse",
        "em"
      ],
      [
        "a",
        "ke"
      ],
      [
        "Ġ",
        "im"
      ],
      [
        "om",
        "et"
      ],
      [
        "IN",
        "G"
      ],
      [
        "Ġ",
        "if"
      ],
      [
        "a",
        "b"
      ],
      [
        "Ġm",
        "ad"
      ],
      [
        "al",
        "k"
      ],
      [
        "L",
        "E"
      ],
      [
        "Ġs",
        "ay"
      ],
      [
        "ic",
        "e"
      ],
      [
        "v",
        "ed"
      ],
      [
        "O",
        "N"
      ],
      [
        "Ġth",
        "ink"
      ],
      [
        "n",
        "g"
      ],
      [
        "Ġt",
        "han"
      ],
      [
        "u",
        "e"
      ],
      [
        "w",
        "n"
      ],
      [
        "m",
        "e"
      ],
      [
        "u",
        "ch"
      ],
      [
        "Ġo",
        "ver"
      ],
      [
        "the",
        "r"
      ],
      [
        "Ġg",
        "reat"
      ],
      [
        "ĠW",
        "hat"
      ],
      [
        "ĠM",
        "r"
      ],
      [
        "a",
        "p"
      ],
      [
        "ar",
        "s"
      ],
      [
        "ri",
        "ed"
      ],
      [
        "h",
        "i"
      ],
      [
        "ad",
        "y"
      ],
      [
        "or",
        "ian"
      ],
      [
        "Ġu",
        "s"
      ],
      [
        "i",
        "es"
      ],
      [
        "Ġb",
        "l"
      ],
      [
        "ar",
        "k"
      ],
      [
        "ri",
        "ght"
      ],
      [
        "Ġto",
        "o"
      ],
      [
        "Ġit",
        "s"
      ],
      [
        "ĠB",
        "ut"
      ],
      [
        "Ġd",
        "own"
      ],
      [
        "p",
        "l"
      ],
      [
        "Ġc",
        "ome"
      ],
      [
        "Ġsh",
        "ould"
      ],
      [
        "Ġp",
        "r"
      ],
      [
        "b",
        "e"
      ],
      [
        "in",
        "e"
      ],
      [
        "v",
        "es"
      ],
      [
        "he",
        "re"
      ],
      [
        "Ġd",
        "id"
      ],
      [
        "Ġd",
        "re"
      ],
      [
        "ou",
        "se"
      ],
      [
        "Ġp",
        "re"
      ],
      [
        "Ġd",
        "es"
      ],
      [
        "Ġl",
        "ittle"
      ],
      [
        "Ġse",
        "e"
      ],
      [
        "Ġa",
        "c"
      ],
      [
        "Ġaf",
        "ter"
      ],
      [
        "Ġs",
        "c"
      ],
      [
        "R",
        "S"
      ],
      [
        "f",
        "ore"
      ],
      [
        "Ġqu",
        "ite"
      ],
      [
        "p",
        "s"
      ],
      [
        "OR",
        "ING"
      ],
      [
        "way",
        "s"
      ],
      [
        "M",
        "ER"
      ],
      [
        "Ġd",
        "is"
      ],
      [
        "ĠG",
        "ORING"
      ],
      [
        "Ġm",
        "en"
      ],
      [
        "Ġf",
        "l"
      ],
      [
        "o",
        "s"
      ],
      [
        "Ġt",
        "ime"
      ],
      [
        "o",
        "y"
      ],
      [
        "ot",
        "her"
      ],
      [
        "v",
        "ing"
      ],
      [
        "ha",
        "r"
      ],
      [
        "Ġs",
        "omet"
      ],
      [
        "ur",
        "n"
      ],
      [
        "C",
        "K"
      ],
      [
        "Ġt",
        "er"
      ],
      [
        "ĠL",
        "ord"
      ],
      [
        "MER",
        "E"
      ],
      [
        "Ġb",
        "ack"
      ],
      [
        "ER",
        "MERE"
      ],
      [
        "m",
        "ent"
      ],
      [
        "Ġo",
        "ther"
      ],
      [
        "IN",
        "D"
      ],
      [
        "IND",
        "ERMERE"
      ],
      [
        "Ġ",
        "en"
      ],
      [
        "ĠW",
        "INDERMERE"
      ],
      [
        "an",
        "ce"
      ],
      [
        "w",
        "ard"
      ],
      [
        "at",
        "her"
      ],
      [
        "Ġm",
        "uch"
      ],
      [
        "ar",
        "y"
      ],
      [
        "i",
        "ous"
      ],
      [
        "Ġag",
        "ain"
      ],
      [
        "m",
        "m"
      ],
      [
        "Ġd",
        "ay"
      ],
      [
        "or",
        "n"
      ],
      [
        "in",
        "t"
      ],
      [
        "Ġe",
        "very"
      ],
      [
        "op",
        "le"
      ],
      [
        "ĠThe",
        "y"
      ],
      [
        "t",
        "hat"
      ],
      [
        "or",
        "r"
      ],
      [
        "M",
        "RS"
      ],
      [
        "Ġal",
        "ways"
      ],
      [
        "at",
        "h"
      ],
      [
        "ĠA",
        "nd"
      ],
      [
        "Ġt",
        "w"
      ],
      [
        "f",
        "f"
      ],
      [
        "Ġl",
        "ove"
      ],
      [
        "ĠD",
        "orian"
      ],
      [
        "e",
        "w"
      ],
      [
        "u",
        "ll"
      ],
      [
        "ion",
        "s"
      ],
      [
        "Ġc",
        "l"
      ],
      [
        "re",
        "e"
      ],
      [
        "Ġp",
        "er"
      ],
      [
        "d",
        "e"
      ],
      [
        "ic",
        "k"
      ],
      [
        "ac",
        "t"
      ],
      [
        "Ġth",
        "r"
      ],
      [
        "p",
        "er"
      ],
      [
        "t",
        "e"
      ],
      [
        "en",
        "ed"
      ],
      [
        "l",
        "ess"
      ],
      [
        "Ġha",
        "nd"
      ],
      [
        "w",
        "e"
      ],
      [
        "Ġ",
        "*"
      ],
      [
        "Ġthing",
        "s"
      ],
      [
        "ran",
        "ge"
      ],
      [
        "Ġbe",
        "fore"
      ],
      [
        "Ġw",
        "om"
      ],
      [
        "Ġe",
        "ven"
      ],
      [
        "n",
        "ess"
      ],
      [
        "Ġmad",
        "e"
      ],
      [
        "nd",
        "er"
      ],
      [
        "Ġseem",
        "ed"
      ],
      [
        "b",
        "er"
      ],
      [
        "_",
        "."
      ],
      [
        "on",
        "s"
      ],
      [
        "A",
        "CK"
      ],
      [
        "Ġn",
        "ight"
      ],
      [
        "Ġc",
        "ame"
      ],
      [
        "Ġg",
        "ood"
      ],
      [
        "_",
        ","
      ],
      [
        "Ġl",
        "ong"
      ],
      [
        "ul",
        "t"
      ],
      [
        "Ġo",
        "ld"
      ],
      [
        "le",
        "y"
      ],
      [
        "Ġt",
        "ell"
      ],
      [
        "re",
        "t"
      ],
      [
        "Ġl",
        "a"
      ],
      [
        "is",
        "s"
      ],
      [
        "o",
        "ll"
      ],
      [
        "Ġthe",
        "n"
      ],
      [
        "an",
        "s"
      ],
      [
        "n",
        "ot"
      ],
      [
        "?",
        "âĢĿ"
      ],
      [
        "ĠThe",
        "re"
      ],
      [
        "A",
        "L"
      ],
      [
        "ou",
        "nt"
      ],
      [
        "en",
        "s"
      ],
      [
        "Ġo",
        "wn"
      ],
      [
        "Ġg",
        "l"
      ],
      [
        "b",
        "y"
      ],
      [
        "l",
        "i"
      ],
      [
        "Ġe",
        "ver"
      ],
      [
        "ĠA",
        "r"
      ],
      [
        "Ġa",
        "way"
      ],
      [
        "Ġ",
        "V"
      ],
      [
        "Ġre",
        "m"
      ],
      [
        "N",
        "E"
      ],
      [
        "Ġm",
        "on"
      ],
      [
        "Ġbe",
        "c"
      ],
      [
        "o",
        "ld"
      ],
      [
        "Ġs",
        "pe"
      ],
      [
        "Ġwor",
        "ld"
      ],
      [
        "Ġpe",
        "ople"
      ],
      [
        "Ġsomet",
        "hing"
      ],
      [
        "r",
        "ay"
      ],
      [
        "Ġy",
        "e"
      ],
      [
        "Ġs",
        "m"
      ],
      [
        "Ġa",
        "d"
      ],
      [
        "ri",
        "ble"
      ],
      [
        "H",
        "A"
      ],
      [
        "a",
        "ve"
      ],
      [
        "Ġt",
        "alk"
      ],
      [
        "Ġw",
        "ell"
      ],
      [
        "Ġto",
        "ld"
      ],
      [
        "Ġp",
        "ass"
      ],
      [
        "a",
        "it"
      ],
      [
        "f",
        "t"
      ],
      [
        "Ġh",
        "ow"
      ],
      [
        "h",
        "y"
      ],
      [
        "i",
        "ed"
      ],
      [
        "Ġw",
        "r"
      ],
      [
        "is",
        "e"
      ],
      [
        "f",
        "or"
      ],
      [
        "p",
        "re"
      ],
      [
        "om",
        "ent"
      ],
      [
        "Ġbe",
        "g"
      ],
      [
        "Ġin",
        "t"
      ],
      [
        "Ġth",
        "ought"
      ],
      [
        "Ġc",
        "h"
      ],
      [
        "Ġm",
        "ar"
      ],
      [
        "Ġthr",
        "ough"
      ],
      [
        "ĠĠĠĠ",
        "ĠĠ"
      ],
      [
        "ert",
        "ain"
      ],
      [
        "Ġh",
        "ouse"
      ],
      [
        "Ġm",
        "ost"
      ],
      [
        "ow",
        "ed"
      ],
      [
        "at",
        "ed"
      ],
      [
        "at",
        "er"
      ],
      [
        "h",
        "is"
      ],
      [
        "Ġ",
        "ent"
      ],
      [
        "Ġnot",
        "hing"
      ],
      [
        "Ġsu",
        "ch"
      ],
      [
        "a",
        "ut"
      ],
      [
        "p",
        "le"
      ],
      [
        "Ġw",
        "ant"
      ],
      [
        "ing",
        "s"
      ],
      [
        "Ġre",
        "ally"
      ],
      [
        "e",
        "ver"
      ],
      [
        "ic",
        "al"
      ],
      [
        "o",
        "g"
      ],
      [
        "E",
        "C"
      ],
      [
        "Ã",
        "ī"
      ],
      [
        "w",
        "h"
      ],
      [
        "Ġe",
        "y"
      ],
      [
        "c",
        "he"
      ],
      [
        "en",
        "ry"
      ],
      [
        "ac",
        "h"
      ],
      [
        "Ġe",
        "ar"
      ],
      [
        "Ġde",
        "ar"
      ],
      [
        "o",
        "ck"
      ],
      [
        "Ġw",
        "ond"
      ],
      [
        "Ġl",
        "et"
      ],
      [
        "Ġon",
        "ce"
      ],
      [
        "Ġc",
        "r"
      ],
      [
        "I",
        "R"
      ],
      [
        "ain",
        "t"
      ],
      [
        "A",
        "R"
      ],
      [
        "l",
        "ed"
      ],
      [
        "s",
        "w"
      ],
      [
        "on",
        "t"
      ],
      [
        "i",
        "le"
      ],
      [
        "w",
        "as"
      ],
      [
        "i",
        "z"
      ],
      [
        "Ġst",
        "range"
      ],
      [
        "au",
        "se"
      ],
      [
        "a",
        "ir"
      ],
      [
        "Ġm",
        "oment"
      ],
      [
        "I",
        "t"
      ],
      [
        "Ġf",
        "ar"
      ],
      [
        "at",
        "ter"
      ],
      [
        "ĠS",
        "he"
      ],
      [
        "i",
        "ble"
      ],
      [
        "en",
        "se"
      ],
      [
        "ow",
        "s"
      ],
      [
        "ig",
        "n"
      ],
      [
        "Ġsha",
        "ll"
      ],
      [
        "Ġp",
        "as"
      ],
      [
        "ĠR",
        "O"
      ],
      [
        "B",
        "ER"
      ],
      [
        "Ġof",
        "f"
      ],
      [
        "g",
        "ed"
      ],
      [
        "Ġw",
        "here"
      ],
      [
        "Ġl",
        "ast"
      ],
      [
        "BER",
        "T"
      ],
      [
        "l",
        "ight"
      ],
      [
        "ĠH",
        "enry"
      ],
      [
        "i",
        "ld"
      ],
      [
        "Ġre",
        "s"
      ],
      [
        "ir",
        "st"
      ],
      [
        "Ġ.",
        ".."
      ],
      [
        "ĠRO",
        "BERT"
      ],
      [
        "Ġg",
        "re"
      ],
      [
        "Ġu",
        "nder"
      ],
      [
        "Ġsa",
        "w"
      ],
      [
        "Ġar",
        "t"
      ],
      [
        "or",
        "s"
      ],
      [
        "ri",
        "end"
      ],
      [
        "Ġse",
        "c"
      ],
      [
        "ĠL",
        "ady"
      ],
      [
        "a",
        "is"
      ],
      [
        "Ġc",
        "all"
      ],
      [
        "c",
        "l"
      ],
      [
        "i",
        "ly"
      ],
      [
        "in",
        "ce"
      ],
      [
        "ĠT",
        "hat"
      ],
      [
        "h",
        "um"
      ],
      [
        "er",
        "n"
      ],
      [
        "Ġgo",
        "ing"
      ],
      [
        "Ġhe",
        "re"
      ],
      [
        "d",
        "en"
      ],
      [
        "u",
        "ri"
      ],
      [
        "Ġbe",
        "t"
      ],
      [
        "J",
        "ACK"
      ],
      [
        "or",
        "y"
      ],
      [
        "mm",
        "i"
      ],
      [
        "S",
        "IR"
      ],
      [
        "are",
        "d"
      ],
      [
        "o",
        "b"
      ],
      [
        "y",
        "ou"
      ],
      [
        "Ġhim",
        "self"
      ],
      [
        "EC",
        "IL"
      ],
      [
        "ar",
        "ry"
      ],
      [
        "ic",
        "t"
      ],
      [
        "Ġro",
        "om"
      ],
      [
        "V",
        "E"
      ],
      [
        "n",
        "er"
      ],
      [
        "Ġqu",
        "e"
      ],
      [
        "ha",
        "d"
      ],
      [
        "b",
        "r"
      ],
      [
        "Ġf",
        "ound"
      ],
      [
        "Ġyou",
        "ng"
      ],
      [
        "ĠI",
        "n"
      ],
      [
        "ot",
        "h"
      ],
      [
        "Ġas",
        "k"
      ],
      [
        "C",
        "ECIL"
      ],
      [
        "p",
        "h"
      ],
      [
        "Ġ",
        "ke"
      ],
      [
        "in",
        "s"
      ],
      [
        "Ġcon",
        "s"
      ],
      [
        "w",
        "ith"
      ],
      [
        "Ġth",
        "ose"
      ],
      [
        "pe",
        "ct"
      ],
      [
        "LE",
        "Y"
      ],
      [
        "E",
        "VE"
      ],
      [
        "Ġw",
        "ay"
      ],
      [
        "Ġth",
        "ough"
      ],
      [
        "G",
        "ERN"
      ],
      [
        "as",
        "e"
      ],
      [
        "Ġan",
        "sw"
      ],
      [
        "EVE",
        "LEY"
      ],
      [
        "GERN",
        "ON"
      ],
      [
        "H",
        "e"
      ],
      [
        "a",
        "v"
      ],
      [
        "b",
        "ur"
      ],
      [
        "c",
        "ed"
      ],
      [
        "x",
        "t"
      ],
      [
        "ĠCH",
        "EVELEY"
      ],
      [
        "AL",
        "GERNON"
      ],
      [
        "Ġwond",
        "er"
      ],
      [
        "m",
        "ost"
      ],
      [
        "od",
        "y"
      ],
      [
        "c",
        "o"
      ],
      [
        "Ġ",
        "right"
      ],
      [
        "our",
        "se"
      ],
      [
        "a",
        "le"
      ],
      [
        "Ġc",
        "har"
      ],
      [
        "Ġf",
        "riend"
      ],
      [
        "ĠA",
        "mmi"
      ],
      [
        "ĠMr",
        "s"
      ],
      [
        "s",
        "h"
      ],
      [
        "Ġw",
        "ind"
      ],
      [
        "Ġj",
        "ust"
      ],
      [
        "Ġtw",
        "o"
      ],
      [
        "a",
        "hum"
      ],
      [
        "o",
        "on"
      ],
      [
        "Ġp",
        "art"
      ],
      [
        "ter",
        "n"
      ],
      [
        "Ġv",
        "o"
      ],
      [
        "Ġpl",
        "ace"
      ],
      [
        "Ġey",
        "es"
      ],
      [
        "g",
        "et"
      ],
      [
        "g",
        "r"
      ],
      [
        "Ġm",
        "ay"
      ],
      [
        "t",
        "y"
      ],
      [
        "Ġ",
        "\""
      ],
      [
        "f",
        "ess"
      ],
      [
        "Ġg",
        "et"
      ],
      [
        "ĠG",
        "ray"
      ],
      [
        "c",
        "es"
      ],
      [
        "Ġt",
        "re"
      ],
      [
        "an",
        "g"
      ],
      [
        "f",
        "ect"
      ],
      [
        "Ġm",
        "ight"
      ],
      [
        "Ġany",
        "thing"
      ],
      [
        "Y",
        "ou"
      ],
      [
        "a",
        "il"
      ],
      [
        "ĠO",
        "h"
      ],
      [
        "Ġbe",
        "l"
      ],
      [
        "Ġbe",
        "ing"
      ],
      [
        "Ġwom",
        "an"
      ],
      [
        "ĠO",
        "n"
      ],
      [
        "E",
        "N"
      ],
      [
        "l",
        "ing"
      ],
      [
        "u",
        "g"
      ],
      [
        "Ġcon",
        "t"
      ],
      [
        "e",
        "ley"
      ],
      [
        "ĠN",
        "ahum"
      ],
      [
        "Ġdre",
        "am"
      ],
      [
        "c",
        "hed"
      ],
      [
        "Ġt",
        "e"
      ],
      [
        "Ġup",
        "on"
      ],
      [
        "s",
        "ide"
      ],
      [
        "Ġo",
        "ur"
      ],
      [
        "Ġst",
        "ill"
      ],
      [
        "ĠC",
        "h"
      ],
      [
        "Ġat",
        "t"
      ],
      [
        "Ġear",
        "th"
      ],
      [
        "'",
        "t"
      ],
      [
        "c",
        "ri"
      ],
      [
        "Ġm",
        "ake"
      ],
      [
        "ou",
        "l"
      ],
      [
        "Ġdo",
        "or"
      ],
      [
        "Ġlook",
        "ed"
      ],
      [
        "Ġf",
        "irst"
      ],
      [
        "n",
        "ight"
      ],
      [
        "er",
        "m"
      ],
      [
        "Ġc",
        "ertain"
      ],
      [
        "Ġl",
        "o"
      ],
      [
        "ce",
        "pt"
      ],
      [
        "Ġre",
        "g"
      ],
      [
        "Ġb",
        "oy"
      ],
      [
        "c",
        "om"
      ],
      [
        "Ġs",
        "ur"
      ],
      [
        "Ġc",
        "ol"
      ],
      [
        "Ġp",
        "le"
      ],
      [
        "ĠN",
        "o"
      ],
      [
        "u",
        "x"
      ],
      [
        "r",
        "om"
      ],
      [
        "Ġf",
        "ace"
      ],
      [
        "i",
        "gh"
      ],
      [
        "Ġre",
        "al"
      ],
      [
        "ro",
        "ss"
      ],
      [
        "el",
        "t"
      ],
      [
        "ĠY",
        "es"
      ],
      [
        "Ġcom",
        "m"
      ],
      [
        "Ġhe",
        "ad"
      ],
      [
        "b",
        "ut"
      ],
      [
        "Ġr",
        "ound"
      ],
      [
        "i",
        "a"
      ],
      [
        "u",
        "al"
      ],
      [
        "Ġc",
        "han"
      ],
      [
        "Ġc",
        "ried"
      ],
      [
        "Ġv",
        "is"
      ],
      [
        "Ġle",
        "ft"
      ],
      [
        "Ġfe",
        "el"
      ],
      [
        "Ġk",
        "ind"
      ],
      [
        "Ġab",
        "s"
      ],
      [
        "i",
        "v"
      ],
      [
        "l",
        "and"
      ],
      [
        "Ġs",
        "il"
      ],
      [
        "st",
        "r"
      ],
      [
        "Ġse",
        "en"
      ],
      [
        "Ġw",
        "ent"
      ],
      [
        "Ġo",
        "p"
      ],
      [
        "er",
        "v"
      ],
      [
        "Ġc",
        "ourse"
      ],
      [
        "Ġfor",
        "m"
      ],
      [
        "Ġsu",
        "b"
      ],
      [
        "HA",
        "M"
      ],
      [
        "R",
        "O"
      ],
      [
        "Ġe",
        "t"
      ],
      [
        "ar",
        "n"
      ],
      [
        "ation",
        "s"
      ],
      [
        "i",
        "al"
      ],
      [
        "Ã",
        "¨"
      ],
      [
        "Ġha",
        "pp"
      ],
      [
        "Ġbe",
        "aut"
      ],
      [
        "im",
        "es"
      ],
      [
        "p",
        "o"
      ],
      [
        "Ġha",
        "lf"
      ],
      [
        "at",
        "t"
      ],
      [
        "Ġhe",
        "ard"
      ],
      [
        "ĠH",
        "ow"
      ],
      [
        "Ġqu",
        "i"
      ],
      [
        "Ġman",
        "y"
      ],
      [
        "ak",
        "es"
      ],
      [
        "ĠWhat",
        "eley"
      ],
      [
        "ha",
        "m"
      ],
      [
        "Ġm",
        "et"
      ],
      [
        "Ġh",
        "or"
      ],
      [
        "ver",
        "s"
      ],
      [
        "u",
        "p"
      ],
      [
        "ĠThe",
        "n"
      ],
      [
        "at",
        "ure"
      ],
      [
        "Ġne",
        "w"
      ],
      [
        "Ġkn",
        "ew"
      ],
      [
        "!",
        "âĢĿ"
      ],
      [
        "Ġple",
        "as"
      ],
      [
        "a",
        "pp"
      ],
      [
        "Ġdo",
        "es"
      ],
      [
        "pre",
        "ss"
      ],
      [
        "m",
        "an"
      ],
      [
        "p",
        "r"
      ],
      [
        "Ġp",
        "ut"
      ],
      [
        "qu",
        "e"
      ],
      [
        "ak",
        "ing"
      ],
      [
        "ull",
        "y"
      ],
      [
        "t",
        "re"
      ],
      [
        "Ġa",
        "ct"
      ],
      [
        "ou",
        "d"
      ],
      [
        "ut",
        "e"
      ],
      [
        "Ġwho",
        "le"
      ],
      [
        "Ġter",
        "rible"
      ],
      [
        "CECIL",
        "Y"
      ],
      [
        "L",
        "Y"
      ],
      [
        "an",
        "e"
      ],
      [
        "Ġha",
        "r"
      ],
      [
        "ĠW",
        "il"
      ],
      [
        "B",
        "ut"
      ],
      [
        "c",
        "le"
      ],
      [
        "m",
        "it"
      ],
      [
        "w",
        "hat"
      ],
      [
        "s",
        "o"
      ],
      [
        "Ġc",
        "hi"
      ],
      [
        "if",
        "f"
      ],
      [
        "Ġ",
        "1"
      ],
      [
        "Ġw",
        "ife"
      ],
      [
        "is",
        "m"
      ],
      [
        "is",
        "hed"
      ],
      [
        "e",
        "k"
      ],
      [
        "Ġt",
        "urn"
      ],
      [
        "Ġd",
        "ark"
      ],
      [
        "ĠW",
        "hen"
      ],
      [
        "f",
        "ter"
      ],
      [
        "s",
        "c"
      ],
      [
        "Ġp",
        "ers"
      ],
      [
        "y",
        "ing"
      ],
      [
        "Ġ",
        "["
      ],
      [
        "Ġa",
        "pp"
      ],
      [
        "Ġc",
        "le"
      ],
      [
        "Ġre",
        "c"
      ],
      [
        "ro",
        "om"
      ],
      [
        "ĠH",
        "arry"
      ],
      [
        "ra",
        "id"
      ],
      [
        "uri",
        "ous"
      ],
      [
        "it",
        "ion"
      ],
      [
        "Ġm",
        "atter"
      ],
      [
        "Ġc",
        "lo"
      ],
      [
        "ĠP",
        "r"
      ],
      [
        "ĠJ",
        "e"
      ],
      [
        "Ġg",
        "ot"
      ],
      [
        "Ġmy",
        "self"
      ],
      [
        "Ġh",
        "ill"
      ],
      [
        "Ġh",
        "orr"
      ],
      [
        "Ġsu",
        "pp"
      ],
      [
        "j",
        "ect"
      ],
      [
        "Ġd",
        "ist"
      ],
      [
        "âĢ",
        "ĺ"
      ],
      [
        "ĠE",
        "r"
      ],
      [
        "W",
        "hat"
      ],
      [
        "t",
        "on"
      ],
      [
        "in",
        "ed"
      ],
      [
        "Ġg",
        "i"
      ],
      [
        "H",
        "Ãī"
      ],
      [
        "c",
        "c"
      ],
      [
        "f",
        "l"
      ],
      [
        "Ġs",
        "oul"
      ],
      [
        "Ġn",
        "ame"
      ],
      [
        "Ġe",
        "nd"
      ],
      [
        "Ġye",
        "ars"
      ],
      [
        "Ġbeg",
        "an"
      ],
      [
        "Ġg",
        "ive"
      ],
      [
        "Ġst",
        "r"
      ],
      [
        "RO",
        "D"
      ],
      [
        "HÃī",
        "ROD"
      ],
      [
        "a",
        "i"
      ],
      [
        "Ġw",
        "ord"
      ],
      [
        "Ġc",
        "e"
      ],
      [
        "as",
        "il"
      ],
      [
        "Ġu",
        "se"
      ],
      [
        "orn",
        "ing"
      ],
      [
        "b",
        "and"
      ],
      [
        "it",
        "s"
      ],
      [
        "Ġwith",
        "out"
      ],
      [
        "ĠM",
        "y"
      ],
      [
        "ĠĠĠĠ",
        "ĠĠĠĠ"
      ],
      [
        "Ġal",
        "most"
      ],
      [
        "Ġa",
        "p"
      ],
      [
        "Ġs",
        "ame"
      ],
      [
        "ar",
        "ly"
      ],
      [
        "Ġh",
        "us"
      ],
      [
        "un",
        "t"
      ],
      [
        "Ġchi",
        "ld"
      ],
      [
        "e",
        "x"
      ],
      [
        "s",
        "ent"
      ],
      [
        "re",
        "am"
      ],
      [
        "Ġm",
        "ind"
      ],
      [
        "ob",
        "ert"
      ],
      [
        "l",
        "es"
      ],
      [
        "Ġt",
        "ake"
      ],
      [
        "is",
        "on"
      ],
      [
        "Ġb",
        "ro"
      ],
      [
        "Ġl",
        "es"
      ],
      [
        "Ġe",
        "v"
      ],
      [
        "ci",
        "ous"
      ],
      [
        "Ġj",
        "e"
      ],
      [
        "k",
        "y"
      ],
      [
        "t",
        "en"
      ],
      [
        "Ġw",
        "ood"
      ],
      [
        "Ġwho",
        "se"
      ],
      [
        "er",
        "ing"
      ],
      [
        "Ġc",
        "ha"
      ],
      [
        "ĠH",
        "is"
      ],
      [
        "ĠW",
        "e"
      ],
      [
        "Ġr",
        "u"
      ],
      [
        "Ġkn",
        "own"
      ],
      [
        "Ġaf",
        "raid"
      ],
      [
        ".",
        "_"
      ],
      [
        "Ġh",
        "o"
      ],
      [
        "Ġre",
        "p"
      ],
      [
        "Ġre",
        "ad"
      ],
      [
        "Ġevery",
        "thing"
      ],
      [
        "Ġsec",
        "ret"
      ],
      [
        "Ġansw",
        "ered"
      ],
      [
        "n",
        "ow"
      ],
      [
        "re",
        "n"
      ],
      [
        "Ġc",
        "are"
      ],
      [
        "or",
        "m"
      ],
      [
        "al",
        "s"
      ],
      [
        "ab",
        "ly"
      ],
      [
        "b",
        "ly"
      ],
      [
        "s",
        "u"
      ],
      [
        "Ġs",
        "ound"
      ],
      [
        "Ġf",
        "elt"
      ],
      [
        "Ġto",
        "ward"
      ],
      [
        "if",
        "ul"
      ],
      [
        "Ġac",
        "c"
      ],
      [
        "a",
        "w"
      ],
      [
        "Ġo",
        "b"
      ],
      [
        "Ġd",
        "one"
      ],
      [
        "Ġy",
        "et"
      ],
      [
        "Ġme",
        "an"
      ],
      [
        "Ġwor",
        "k"
      ],
      [
        "p",
        "ed"
      ],
      [
        "as",
        "on"
      ],
      [
        "li",
        "ke"
      ],
      [
        "N",
        "NE"
      ],
      [
        "Ġ",
        "ve"
      ],
      [
        "Ġt",
        "ra"
      ],
      [
        "in",
        "ess"
      ],
      [
        "ĠI",
        "f"
      ],
      [
        "im",
        "p"
      ],
      [
        "ere",
        "st"
      ],
      [
        "ER",
        "LY"
      ],
      [
        "ci",
        "ent"
      ],
      [
        "Ġcol",
        "our"
      ],
      [
        "ERLY",
        "NNE"
      ],
      [
        "U",
        "S"
      ],
      [
        "Ġ",
        "ERLYNNE"
      ],
      [
        "Ġp",
        "ar"
      ],
      [
        "ĠC",
        "A"
      ],
      [
        "Ġpl",
        "ay"
      ],
      [
        "d",
        "ay"
      ],
      [
        "Ġc",
        "ount"
      ],
      [
        "Ġth",
        "ree"
      ],
      [
        "Ġre",
        "d"
      ],
      [
        "Ġbl",
        "ack"
      ],
      [
        "Ġper",
        "fect"
      ],
      [
        "Ġwom",
        "en"
      ],
      [
        "c",
        "y"
      ],
      [
        "Ġw",
        "alk"
      ],
      [
        "ter",
        "s"
      ],
      [
        "Ġde",
        "ad"
      ],
      [
        "ain",
        "ed"
      ],
      [
        "M",
        "A"
      ],
      [
        "g",
        "in"
      ],
      [
        "m",
        "ed"
      ],
      [
        "hi",
        "p"
      ],
      [
        "Ġhand",
        "s"
      ],
      [
        "Ġbel",
        "ie"
      ],
      [
        "f",
        "in"
      ],
      [
        "m",
        "y"
      ],
      [
        "Ġp",
        "u"
      ],
      [
        "ĠI",
        "l"
      ],
      [
        "i",
        "x"
      ],
      [
        "m",
        "er"
      ],
      [
        "n",
        "ing"
      ],
      [
        "o",
        "i"
      ],
      [
        "t",
        "ing"
      ],
      [
        "Ġb",
        "ad"
      ],
      [
        "Ġp",
        "ain"
      ],
      [
        "st",
        "er"
      ],
      [
        "ent",
        "ion"
      ],
      [
        "oo",
        "l"
      ],
      [
        "pp",
        "ed"
      ],
      [
        "ĠR",
        "obert"
      ],
      [
        "ud",
        "e"
      ],
      [
        "Ġe",
        "l"
      ],
      [
        "ĠB",
        "asil"
      ],
      [
        "Ġc",
        "urious"
      ],
      [
        "Ġf",
        "ather"
      ],
      [
        "ar",
        "ge"
      ],
      [
        "ict",
        "ure"
      ],
      [
        "H",
        "E"
      ],
      [
        "Ġ",
        "est"
      ],
      [
        "Ġm",
        "ere"
      ],
      [
        "Ġf",
        "right"
      ],
      [
        "Ġre",
        "t"
      ],
      [
        "au",
        "ght"
      ],
      [
        "Ġhus",
        "band"
      ],
      [
        "b",
        "ed"
      ],
      [
        "f",
        "ully"
      ],
      [
        "Ġs",
        "et"
      ],
      [
        "Ġw",
        "at"
      ],
      [
        "Ġf",
        "an"
      ],
      [
        "ĠC",
        "e"
      ],
      [
        "orr",
        "ow"
      ],
      [
        "Ġbet",
        "ter"
      ],
      [
        "Ġc",
        "re"
      ],
      [
        "Ġf",
        "ind"
      ],
      [
        "Ġp",
        "ol"
      ],
      [
        "Ġin",
        "de"
      ],
      [
        "Ġtr",
        "ue"
      ],
      [
        "Ġbec",
        "ause"
      ],
      [
        "Ã",
        "ł"
      ],
      [
        "Ġs",
        "er"
      ],
      [
        "Ġm",
        "od"
      ],
      [
        "Ġagain",
        "st"
      ],
      [
        "we",
        "en"
      ],
      [
        ".",
        "\""
      ],
      [
        "E",
        "L"
      ],
      [
        "h",
        "im"
      ],
      [
        "Ġg",
        "one"
      ],
      [
        "ĠW",
        "hy"
      ],
      [
        "u",
        "ck"
      ],
      [
        "Ġa",
        "ir"
      ],
      [
        "re",
        "l"
      ],
      [
        "ha",
        "ve"
      ],
      [
        "Ġf",
        "ell"
      ],
      [
        "Ġg",
        "u"
      ],
      [
        "ut",
        "h"
      ],
      [
        "ent",
        "ly"
      ],
      [
        "Ġwh",
        "ite"
      ],
      [
        "ss",
        "ible"
      ],
      [
        "Ġdre",
        "ad"
      ],
      [
        "Ġvo",
        "ice"
      ],
      [
        "Ġs",
        "l"
      ],
      [
        "ard",
        "en"
      ],
      [
        "bl",
        "ed"
      ],
      [
        "d",
        "u"
      ],
      [
        "o",
        "or"
      ],
      [
        "en",
        "e"
      ],
      [
        "Ġc",
        "ur"
      ],
      [
        "Ġc",
        "ult"
      ],
      [
        "Ġf",
        "am"
      ],
      [
        "le",
        "t"
      ],
      [
        "Ġwh",
        "y"
      ],
      [
        "Ġst",
        "one"
      ],
      [
        "ER",
        "S"
      ],
      [
        "Ġac",
        "ross"
      ],
      [
        "Ġpleas",
        "ure"
      ],
      [
        "Y",
        "es"
      ],
      [
        "Ġt",
        "ill"
      ],
      [
        "Ġt",
        "able"
      ],
      [
        "Ġs",
        "w"
      ],
      [
        "re",
        "s"
      ],
      [
        "re",
        "ss"
      ],
      [
        "Ġw",
        "ild"
      ],
      [
        "Ġb",
        "u"
      ],
      [
        "ow",
        "ing"
      ],
      [
        "Ġg",
        "ra"
      ],
      [
        "ĠS",
        "t"
      ],
      [
        "Ġv",
        "ous"
      ],
      [
        "Ġpo",
        "or"
      ],
      [
        "Ġen",
        "ough"
      ],
      [
        "Ġint",
        "erest"
      ],
      [
        "Ġ",
        "U"
      ],
      [
        "Ġ",
        "hat"
      ],
      [
        "Ġs",
        "ir"
      ],
      [
        "Ġm",
        "orning"
      ],
      [
        "Ġc",
        "ar"
      ],
      [
        "Ġf",
        "act"
      ],
      [
        "Ġhe",
        "art"
      ],
      [
        "ir",
        "l"
      ],
      [
        "ĠA",
        "l"
      ],
      [
        "Ġr",
        "ather"
      ],
      [
        "est",
        "ion"
      ],
      [
        "ure",
        "d"
      ],
      [
        "Ġinde",
        "ed"
      ],
      [
        "A",
        "S"
      ],
      [
        "h",
        "ind"
      ],
      [
        "ha",
        "ps"
      ],
      [
        "Ġh",
        "ome"
      ],
      [
        "Ġha",
        "ving"
      ],
      [
        "id",
        "es"
      ],
      [
        "Ġsu",
        "re"
      ],
      [
        "ol",
        "ute"
      ],
      [
        "ra",
        "w"
      ],
      [
        "m",
        "s"
      ],
      [
        "r",
        "ist"
      ],
      [
        "Ġs",
        "ince"
      ],
      [
        "re",
        "ad"
      ],
      [
        "ar",
        "ch"
      ],
      [
        "Ġe",
        "ach"
      ],
      [
        "Ġsu",
        "n"
      ],
      [
        "ĠE",
        "ng"
      ],
      [
        "Ġim",
        "p"
      ],
      [
        "fess",
        "or"
      ],
      [
        "o",
        "k"
      ],
      [
        "Ġl",
        "arge"
      ],
      [
        "an",
        "y"
      ],
      [
        "Ġde",
        "ep"
      ],
      [
        "Ġcount",
        "ry"
      ],
      [
        "m",
        "ing"
      ],
      [
        "Ġo",
        "d"
      ],
      [
        "Ġd",
        "u"
      ],
      [
        "Ġhe",
        "ar"
      ],
      [
        "Ġre",
        "f"
      ],
      [
        "ir",
        "d"
      ],
      [
        "ci",
        "ly"
      ],
      [
        "ire",
        "d"
      ],
      [
        "Ġpro",
        "p"
      ],
      [
        "Ġhar",
        "d"
      ],
      [
        "V",
        "ERS"
      ],
      [
        "b",
        "ody"
      ],
      [
        "u",
        "se"
      ],
      [
        "Ġs",
        "ens"
      ],
      [
        "Ġw",
        "ater"
      ],
      [
        "Ġb",
        "oth"
      ],
      [
        "Ġin",
        "st"
      ],
      [
        "the",
        "re"
      ],
      [
        "ĠM",
        "iss"
      ],
      [
        "Ġgo",
        "ld"
      ],
      [
        "Ġsm",
        "all"
      ],
      [
        "VERS",
        "HAM"
      ],
      [
        "u",
        "i"
      ],
      [
        "Ġf",
        "oll"
      ],
      [
        "et",
        "y"
      ],
      [
        "Ġwh",
        "ile"
      ],
      [
        "ĠA",
        "h"
      ],
      [
        "ĠA",
        "s"
      ],
      [
        "Ġtoo",
        "k"
      ],
      [
        "Ġ",
        "es"
      ],
      [
        "Ġ",
        "ide"
      ],
      [
        "Ġt",
        "ou"
      ],
      [
        "at",
        "ing"
      ],
      [
        "ill",
        "e"
      ],
      [
        "ul",
        "ar"
      ],
      [
        "ak",
        "en"
      ],
      [
        "Ã©",
        "t"
      ],
      [
        "den",
        "ly"
      ],
      [
        "Ġap",
        "pe"
      ],
      [
        "S",
        "S"
      ],
      [
        "c",
        "lo"
      ],
      [
        "n",
        "o"
      ],
      [
        "s",
        "ed"
      ],
      [
        "Ġa",
        "w"
      ],
      [
        "Ġw",
        "ait"
      ],
      [
        "ent",
        "s"
      ],
      [
        "am",
        "p"
      ],
      [
        "Ġso",
        "on"
      ],
      [
        "ĠL",
        "e"
      ],
      [
        "em",
        "ber"
      ],
      [
        "Ġpers",
        "on"
      ],
      [
        "Ġsupp",
        "ose"
      ],
      [
        "O",
        "h"
      ],
      [
        "l",
        "ook"
      ],
      [
        "n",
        "ter"
      ],
      [
        "t",
        "ed"
      ],
      [
        "it",
        "her"
      ],
      [
        "Ġl",
        "ight"
      ],
      [
        "an",
        "k"
      ],
      [
        "st",
        "and"
      ],
      [
        "LE",
        "N"
      ],
      [
        "ĠCA",
        "VERSHAM"
      ],
      [
        "D",
        "O"
      ],
      [
        "d",
        "er"
      ],
      [
        "Ġ",
        "il"
      ],
      [
        "he",
        "s"
      ],
      [
        "Ġc",
        "o"
      ],
      [
        "Ġl",
        "ist"
      ],
      [
        "Ġl",
        "au"
      ],
      [
        "The",
        "y"
      ],
      [
        "Ġspe",
        "ak"
      ],
      [
        "EN",
        "DO"
      ],
      [
        "Ġho",
        "pe"
      ],
      [
        "ENDO",
        "LEN"
      ],
      [
        "W",
        "ENDOLEN"
      ],
      [
        "o",
        "ke"
      ],
      [
        "w",
        "ere"
      ],
      [
        "Ġw",
        "ish"
      ],
      [
        "Ġb",
        "ook"
      ],
      [
        "Ġd",
        "iff"
      ],
      [
        "Ġhe",
        "l"
      ],
      [
        "ct",
        "ion"
      ],
      [
        "Ġabs",
        "olute"
      ],
      [
        "mit",
        "age"
      ],
      [
        "Ġbelie",
        "ve"
      ],
      [
        "B",
        "Y"
      ],
      [
        "G",
        "WENDOLEN"
      ],
      [
        "a",
        "z"
      ],
      [
        "i",
        "en"
      ],
      [
        "Ġs",
        "ing"
      ],
      [
        "Ġthe",
        "se"
      ],
      [
        "as",
        "ed"
      ],
      [
        "Ġp",
        "h"
      ],
      [
        "al",
        "ity"
      ],
      [
        "Ġan",
        "other"
      ],
      [
        "Ġne",
        "xt"
      ],
      [
        "un",
        "g"
      ],
      [
        "ond",
        "on"
      ],
      [
        "ĠJ",
        "o"
      ],
      [
        "Ġask",
        "ed"
      ],
      [
        "Ġfriend",
        "s"
      ],
      [
        "i",
        "er"
      ],
      [
        "r",
        "or"
      ],
      [
        "Ġ",
        "'"
      ],
      [
        "Ġs",
        "ense"
      ],
      [
        "ar",
        "g"
      ],
      [
        "Ġe",
        "m"
      ],
      [
        "Ġpo",
        "int"
      ],
      [
        "Ġim",
        "ag"
      ],
      [
        "Ġpass",
        "ed"
      ],
      [
        "Ġhorr",
        "or"
      ],
      [
        "A",
        "T"
      ],
      [
        "I",
        "n"
      ],
      [
        "s",
        "en"
      ],
      [
        "ou",
        "th"
      ],
      [
        "Ġwind",
        "ow"
      ],
      [
        "Ġp",
        "ur"
      ],
      [
        "Ġg",
        "irl"
      ],
      [
        "Ġde",
        "ath"
      ],
      [
        "ind",
        "erm"
      ],
      [
        "ĠO",
        "f"
      ],
      [
        "Ġcan",
        "not"
      ],
      [
        "Ġro",
        "ad"
      ],
      [
        "inderm",
        "ere"
      ],
      [
        "B",
        "EL"
      ],
      [
        "Ġs",
        "y"
      ],
      [
        "Ġf",
        "all"
      ],
      [
        "Ġh",
        "ide"
      ],
      [
        "ĠG",
        "od"
      ],
      [
        "Ġbr",
        "ought"
      ],
      [
        "Ġother",
        "s"
      ],
      [
        "Ġbet",
        "ween"
      ],
      [
        "Ġbeaut",
        "iful"
      ],
      [
        "h",
        "o"
      ],
      [
        "k",
        "ham"
      ],
      [
        "at",
        "ive"
      ],
      [
        "Ġg",
        "arden"
      ],
      [
        "Ġbe",
        "hind"
      ],
      [
        "Ġre",
        "st"
      ],
      [
        "Ġst",
        "e"
      ],
      [
        "Ġsu",
        "d"
      ],
      [
        "Ġfl",
        "ow"
      ],
      [
        "Ġmar",
        "ried"
      ],
      [
        "str",
        "ous"
      ],
      [
        "P",
        "P"
      ],
      [
        "s",
        "ome"
      ],
      [
        "w",
        "ill"
      ],
      [
        "Ġm",
        "or"
      ],
      [
        "se",
        "l"
      ],
      [
        "ro",
        "p"
      ],
      [
        "ĠA",
        "n"
      ],
      [
        "ant",
        "ic"
      ],
      [
        "ie",
        "f"
      ],
      [
        "Ġlook",
        "ing"
      ],
      [
        "Ġtr",
        "ou"
      ],
      [
        "Ġtre",
        "es"
      ],
      [
        "A",
        "nd"
      ],
      [
        "E",
        "nter"
      ],
      [
        "L",
        "L"
      ],
      [
        "c",
        "on"
      ],
      [
        "Ã",
        "ª"
      ],
      [
        "he",
        "ve"
      ],
      [
        "Ġs",
        "we"
      ],
      [
        "Ġs",
        "ky"
      ],
      [
        "is",
        "ing"
      ],
      [
        "Ġg",
        "ave"
      ],
      [
        "Ġit",
        "self"
      ],
      [
        "Ġst",
        "and"
      ],
      [
        "ist",
        "s"
      ],
      [
        "Ġus",
        "ed"
      ],
      [
        "D",
        "U"
      ],
      [
        "R",
        "ACK"
      ],
      [
        "k",
        "n"
      ],
      [
        "o",
        "es"
      ],
      [
        "Ġ",
        "Ãł"
      ],
      [
        "Ġt",
        "ri"
      ],
      [
        "Ġt",
        "ry"
      ],
      [
        "Ġt",
        "aken"
      ],
      [
        "Ġp",
        "ast"
      ],
      [
        "Ġh",
        "um"
      ],
      [
        "ur",
        "ing"
      ],
      [
        "ain",
        "s"
      ],
      [
        "ĠB",
        "RACK"
      ],
      [
        "Ġseem",
        "s"
      ],
      [
        "NE",
        "LL"
      ],
      [
        "AR",
        "K"
      ],
      [
        "Ġvis",
        "it"
      ],
      [
        "ĠBRACK",
        "NELL"
      ],
      [
        "D",
        "orian"
      ],
      [
        "M",
        "I"
      ],
      [
        "T",
        "ON"
      ],
      [
        "e",
        "c"
      ],
      [
        "Ġd",
        "ou"
      ],
      [
        "as",
        "h"
      ],
      [
        "Ġin",
        "v"
      ],
      [
        "us",
        "ed"
      ],
      [
        "are",
        "t"
      ],
      [
        "Ġro",
        "se"
      ],
      [
        "Ġfe",
        "w"
      ],
      [
        "Ġfe",
        "et"
      ],
      [
        "Ġday",
        "s"
      ],
      [
        "Ġel",
        "se"
      ],
      [
        "i",
        "p"
      ],
      [
        "Ġh",
        "our"
      ],
      [
        "all",
        "ward"
      ],
      [
        "un",
        "e"
      ],
      [
        "Ġex",
        "c"
      ],
      [
        "ĠP",
        "ro"
      ],
      [
        "Ġwonder",
        "ful"
      ],
      [
        "Ġcomm",
        "on"
      ],
      [
        "R",
        "I"
      ],
      [
        "g",
        "y"
      ],
      [
        "Ġ",
        "id"
      ],
      [
        "at",
        "ur"
      ],
      [
        "ay",
        "s"
      ],
      [
        "ac",
        "es"
      ],
      [
        "ĠB",
        "r"
      ],
      [
        "Ġcom",
        "ing"
      ],
      [
        "bl",
        "ing"
      ],
      [
        "AR",
        "L"
      ],
      [
        "Ġcall",
        "ed"
      ],
      [
        "ĠWil",
        "bur"
      ],
      [
        ",",
        "\""
      ],
      [
        "O",
        "M"
      ],
      [
        "b",
        "t"
      ],
      [
        "f",
        "rom"
      ],
      [
        "k",
        "en"
      ],
      [
        "w",
        "ould"
      ],
      [
        "Ġa",
        "ge"
      ],
      [
        "en",
        "ing"
      ],
      [
        "Ġc",
        "oll"
      ],
      [
        "Ġl",
        "ess"
      ],
      [
        "ad",
        "e"
      ],
      [
        "Ġwh",
        "om"
      ],
      [
        "Ġme",
        "et"
      ],
      [
        "ill",
        "ed"
      ],
      [
        "ove",
        "red"
      ],
      [
        "press",
        "ion"
      ],
      [
        "MA",
        "BEL"
      ],
      [
        "T",
        "hat"
      ],
      [
        "in",
        "es"
      ],
      [
        "Ġb",
        "o"
      ],
      [
        "Ġc",
        "ry"
      ],
      [
        "Ġf",
        "in"
      ],
      [
        "ĠS",
        "o"
      ],
      [
        "Ġsec",
        "ond"
      ],
      [
        "A",
        "N"
      ],
      [
        "T",
        "hen"
      ],
      [
        "W",
        "ell"
      ],
      [
        "u",
        "ally"
      ],
      [
        "Ġ",
        "Q"
      ],
      [
        "Ġb",
        "ody"
      ],
      [
        "Ġin",
        "d"
      ],
      [
        "il",
        "ed"
      ],
      [
        "il",
        "tern"
      ],
      [
        "ĠL",
        "ondon"
      ],
      [
        "ĠD",
        "un"
      ],
      [
        "han",
        "sen"
      ],
      [
        "Ġun",
        "cle"
      ],
      [
        "ate",
        "ly"
      ],
      [
        "ĠAr",
        "kham"
      ],
      [
        "wh",
        "ich"
      ],
      [
        "Ġcertain",
        "ly"
      ],
      [
        "Ġword",
        "s"
      ],
      [
        "k",
        "s"
      ],
      [
        "Ġs",
        "on"
      ],
      [
        "it",
        "ies"
      ],
      [
        "Ġm",
        "us"
      ],
      [
        "is",
        "es"
      ],
      [
        "as",
        "se"
      ],
      [
        "Ġp",
        "icture"
      ],
      [
        "Ġst",
        "art"
      ],
      [
        "ac",
        "hed"
      ],
      [
        "ie",
        "ld"
      ],
      [
        "Ġsay",
        "s"
      ],
      [
        "Ġdream",
        "s"
      ],
      [
        "cri",
        "pt"
      ],
      [
        "._",
        "]"
      ],
      [
        "Ġfam",
        "ily"
      ],
      [
        "M",
        "r"
      ],
      [
        "M",
        "y"
      ],
      [
        "a",
        "id"
      ],
      [
        "e",
        "z"
      ],
      [
        "h",
        "u"
      ],
      [
        "ĠA",
        "ll"
      ],
      [
        "ol",
        "en"
      ],
      [
        "ci",
        "ety"
      ],
      [
        "wh",
        "o"
      ],
      [
        "Ġlet",
        "ter"
      ],
      [
        "Ġmere",
        "ly"
      ],
      [
        "Ġhel",
        "p"
      ],
      [
        "n",
        "est"
      ],
      [
        "t",
        "ered"
      ],
      [
        "w",
        "ich"
      ],
      [
        "Ġs",
        "at"
      ],
      [
        "Ġs",
        "le"
      ],
      [
        "Ġre",
        "l"
      ],
      [
        "Ġsu",
        "ff"
      ],
      [
        "..",
        ".."
      ],
      [
        "ING",
        "TON"
      ],
      [
        "Ġmon",
        "strous"
      ],
      [
        "Ġwr",
        "ong"
      ],
      [
        "Ġke",
        "ep"
      ],
      [
        "ĠCh",
        "iltern"
      ],
      [
        "heve",
        "ley"
      ],
      [
        "ARL",
        "INGTON"
      ],
      [
        "d",
        "ed"
      ],
      [
        "Ġd",
        "et"
      ],
      [
        "Ġin",
        "c"
      ],
      [
        "Ġhe",
        "av"
      ],
      [
        "ĠT",
        "his"
      ],
      [
        "ch",
        "ing"
      ],
      [
        "ĠD",
        "ARLINGTON"
      ],
      [
        "Ġli",
        "ve"
      ],
      [
        "Ġfe",
        "ar"
      ],
      [
        "Ġeven",
        "ing"
      ],
      [
        "Ġent",
        "ire"
      ],
      [
        "Ġreg",
        "ard"
      ],
      [
        "Ġturn",
        "ed"
      ],
      [
        "f",
        "e"
      ],
      [
        "i",
        "by"
      ],
      [
        "Ġm",
        "in"
      ],
      [
        "Ġm",
        "akes"
      ],
      [
        "Ġf",
        "ire"
      ],
      [
        "ous",
        "ly"
      ],
      [
        "Ġne",
        "ar"
      ],
      [
        "ĠO",
        "ld"
      ],
      [
        "one",
        "y"
      ],
      [
        "The",
        "re"
      ],
      [
        "Ġbr",
        "other"
      ],
      [
        "HÃīROD",
        "E"
      ],
      [
        "iby",
        "l"
      ],
      [
        "A",
        "l"
      ],
      [
        "C",
        "HA"
      ],
      [
        "t",
        "is"
      ],
      [
        "is",
        "ed"
      ],
      [
        "Ġc",
        "ut"
      ],
      [
        "Ġf",
        "a"
      ],
      [
        "Ġin",
        "s"
      ],
      [
        "Ġbe",
        "y"
      ],
      [
        "Ġme",
        "m"
      ],
      [
        "ĠL",
        "ORD"
      ],
      [
        "us",
        "hed"
      ],
      [
        "ĠO",
        "ne"
      ],
      [
        "Ġgr",
        "and"
      ],
      [
        "che",
        "s"
      ],
      [
        "b",
        "it"
      ],
      [
        "c",
        "ul"
      ],
      [
        "e",
        "or"
      ],
      [
        "g",
        "g"
      ],
      [
        "Ġs",
        "ent"
      ],
      [
        "Ġc",
        "ity"
      ],
      [
        "Ġof",
        "ten"
      ],
      [
        "ĠW",
        "ell"
      ],
      [
        "ĠW",
        "indermere"
      ],
      [
        "Ġli",
        "ps"
      ],
      [
        "Ġwe",
        "ek"
      ],
      [
        "Ġmon",
        "th"
      ],
      [
        "che",
        "ss"
      ],
      [
        "Ġret",
        "urn"
      ],
      [
        "kn",
        "own"
      ],
      [
        "r",
        "u"
      ],
      [
        "Ġs",
        "ide"
      ],
      [
        "Ġm",
        "o"
      ],
      [
        "Ġm",
        "ur"
      ],
      [
        "Ġp",
        "ort"
      ],
      [
        "ic",
        "s"
      ],
      [
        "Ġst",
        "ood"
      ],
      [
        "Ġan",
        "cient"
      ],
      [
        "ĠD",
        "on"
      ],
      [
        "Ġun",
        "e"
      ],
      [
        "Ġcom",
        "ple"
      ],
      [
        "Ġar",
        "ound"
      ],
      [
        "H",
        "ow"
      ],
      [
        "f",
        "a"
      ],
      [
        "u",
        "es"
      ],
      [
        "in",
        "ary"
      ],
      [
        "Ġs",
        "in"
      ],
      [
        "Ġo",
        "cc"
      ],
      [
        "Ġm",
        "other"
      ],
      [
        "Ġc",
        "or"
      ],
      [
        "or",
        "ry"
      ],
      [
        "Ġd",
        "ans"
      ],
      [
        "Ġl",
        "ow"
      ],
      [
        "Ġh",
        "igh"
      ],
      [
        "Ġst",
        "ay"
      ],
      [
        "if",
        "ic"
      ],
      [
        "ĠD",
        "r"
      ],
      [
        "ĠD",
        "u"
      ],
      [
        "Ġout",
        "side"
      ],
      [
        "bl",
        "ic"
      ],
      [
        "bur",
        "y"
      ],
      [
        "imp",
        "ly"
      ],
      [
        "ĠCe",
        "cily"
      ],
      [
        "Ġser",
        "ious"
      ],
      [
        "Ġabsolute",
        "ly"
      ],
      [
        "n",
        "ce"
      ],
      [
        "r",
        "ing"
      ],
      [
        "Ġm",
        "ention"
      ],
      [
        "Ġf",
        "aint"
      ],
      [
        "Ġd",
        "i"
      ],
      [
        "Ġd",
        "r"
      ],
      [
        "Ġn",
        "ature"
      ],
      [
        "Ġg",
        "en"
      ],
      [
        "Ġe",
        "le"
      ],
      [
        "ĠT",
        "h"
      ],
      [
        "ĠT",
        "o"
      ],
      [
        "ĠC",
        "an"
      ],
      [
        "Ġde",
        "v"
      ],
      [
        "Ġde",
        "light"
      ],
      [
        "ĠS",
        "e"
      ],
      [
        "Ġv",
        "i"
      ],
      [
        "Ġam",
        "ong"
      ],
      [
        "Ġpass",
        "ion"
      ],
      [
        "iz",
        "ed"
      ],
      [
        "Ġgre",
        "en"
      ],
      [
        "get",
        "her"
      ],
      [
        "c",
        "ons"
      ],
      [
        "e",
        "y"
      ],
      [
        "m",
        "on"
      ],
      [
        "s",
        "er"
      ],
      [
        "w",
        "end"
      ],
      [
        "Ġf",
        "ore"
      ],
      [
        "or",
        "ough"
      ],
      [
        "ot",
        "e"
      ],
      [
        "th",
        "ur"
      ],
      [
        "Ġpre",
        "sent"
      ],
      [
        "ĠAr",
        "mitage"
      ],
      [
        "Ġgre",
        "y"
      ],
      [
        "Ġhor",
        "rible"
      ],
      [
        "Ġhide",
        "ous"
      ],
      [
        "sel",
        "ves"
      ],
      [
        "wend",
        "olen"
      ],
      [
        "a",
        "ven"
      ],
      [
        "w",
        "here"
      ],
      [
        "Ġs",
        "ort"
      ],
      [
        "ar",
        "r"
      ],
      [
        "ere",
        "nt"
      ],
      [
        "all",
        "ow"
      ],
      [
        "Ġsomet",
        "imes"
      ],
      [
        "Ġad",
        "m"
      ],
      [
        "ĠEr",
        "nest"
      ],
      [
        "g",
        "ern"
      ],
      [
        "Ġt",
        "em"
      ],
      [
        "he",
        "ad"
      ],
      [
        "it",
        "ed"
      ],
      [
        "Ġc",
        "ent"
      ],
      [
        "Ġd",
        "ri"
      ],
      [
        "Ġl",
        "ad"
      ],
      [
        "ar",
        "ling"
      ],
      [
        "al",
        "th"
      ],
      [
        "Ġfor",
        "g"
      ],
      [
        "ĠC",
        "heveley"
      ],
      [
        "ĠD",
        "e"
      ],
      [
        "Ġex",
        "cept"
      ],
      [
        "Ġop",
        "en"
      ],
      [
        "ĠPr",
        "ince"
      ],
      [
        "gern",
        "on"
      ],
      [
        "S",
        "AL"
      ],
      [
        "w",
        "or"
      ],
      [
        "Ġ",
        "âĢĺ"
      ],
      [
        "in",
        "ing"
      ],
      [
        "Ġs",
        "orry"
      ],
      [
        "Ġb",
        "es"
      ],
      [
        "Ġb",
        "est"
      ],
      [
        "Ġf",
        "ull"
      ],
      [
        "Ġp",
        "aint"
      ],
      [
        "Ġre",
        "ason"
      ],
      [
        "Ġwh",
        "is"
      ],
      [
        "Ġr",
        "om"
      ],
      [
        "Ġfr",
        "ont"
      ],
      [
        "em",
        "b"
      ],
      [
        "ĠO",
        "F"
      ],
      [
        "omet",
        "hing"
      ],
      [
        "Ġhow",
        "ever"
      ],
      [
        "Ġ1",
        "9"
      ],
      [
        "Ġgi",
        "ven"
      ],
      [
        "Ġtoward",
        "s"
      ],
      [
        "Ġbey",
        "ond"
      ],
      [
        "S",
        "he"
      ],
      [
        "o",
        "ot"
      ],
      [
        "Ġ",
        "ri"
      ],
      [
        "Ġw",
        "on"
      ],
      [
        "is",
        "ter"
      ],
      [
        "Ġd",
        "ire"
      ],
      [
        "Ġn",
        "or"
      ],
      [
        "ĠS",
        "ibyl"
      ],
      [
        "Ġex",
        "t"
      ],
      [
        "Ġknow",
        "s"
      ],
      [
        "ĠF",
        "or"
      ],
      [
        "T",
        "o"
      ],
      [
        "g",
        "o"
      ],
      [
        "Ġ",
        "2"
      ],
      [
        "Ġb",
        "it"
      ],
      [
        "Ġc",
        "he"
      ],
      [
        "ing",
        "ly"
      ],
      [
        "or",
        "ies"
      ],
      [
        "Ġyou",
        "th"
      ],
      [
        "et",
        "s"
      ],
      [
        "ĠH",
        "allward"
      ],
      [
        "ell",
        "ow"
      ],
      [
        "us",
        "s"
      ],
      [
        "Ġcom",
        "me"
      ],
      [
        "Ġdis",
        "c"
      ],
      [
        "Ġbec",
        "ome"
      ],
      [
        "for",
        "m"
      ],
      [
        "co",
        "x"
      ],
      [
        "Ġod",
        "d"
      ],
      [
        "ĠJo",
        "hansen"
      ],
      [
        "c",
        "ess"
      ],
      [
        "i",
        "ant"
      ],
      [
        "u",
        "nd"
      ],
      [
        "Ġs",
        "light"
      ],
      [
        "Ġc",
        "ou"
      ],
      [
        "Ġc",
        "el"
      ],
      [
        "Ġf",
        "ig"
      ],
      [
        "ur",
        "s"
      ],
      [
        "Ġst",
        "ars"
      ],
      [
        "ĠA",
        "t"
      ],
      [
        "Ġde",
        "c"
      ],
      [
        "ĠG",
        "ood"
      ],
      [
        "em",
        "ent"
      ],
      [
        "ol",
        "og"
      ],
      [
        "ra",
        "ce"
      ],
      [
        "pp",
        "er"
      ],
      [
        "Ġle",
        "ave"
      ],
      [
        "itt",
        "ing"
      ],
      [
        "Ġbec",
        "ame"
      ],
      [
        "Ġunder",
        "stand"
      ],
      [
        "Ġclo",
        "se"
      ],
      [
        "Ġdou",
        "bt"
      ],
      [
        "Ġheav",
        "y"
      ],
      [
        "R",
        "A"
      ],
      [
        "R",
        "E"
      ],
      [
        "a",
        "f"
      ],
      [
        "g",
        "l"
      ],
      [
        "n",
        "ne"
      ],
      [
        "w",
        "ell"
      ],
      [
        "Ġ",
        "Z"
      ],
      [
        "Ġm",
        "oon"
      ],
      [
        "Ġl",
        "ate"
      ],
      [
        "ro",
        "ve"
      ],
      [
        "Ġle",
        "ad"
      ],
      [
        "Ġsp",
        "oke"
      ],
      [
        "Ġpre",
        "t"
      ],
      [
        "Ġgl",
        "ad"
      ],
      [
        "air",
        "s"
      ],
      [
        "Ġsub",
        "ject"
      ],
      [
        "Ġhapp",
        "ened"
      ],
      [
        "Ġperfect",
        "ly"
      ],
      [
        "Ġsud",
        "denly"
      ],
      [
        "ĠPro",
        "fessor"
      ],
      [
        "ĠDun",
        "wich"
      ],
      [
        "L",
        "D"
      ],
      [
        "c",
        "r"
      ],
      [
        "d",
        "is"
      ],
      [
        "g",
        "an"
      ],
      [
        "s",
        "ha"
      ],
      [
        "or",
        "ing"
      ],
      [
        "Ġe",
        "ff"
      ],
      [
        "Ġun",
        "known"
      ],
      [
        "Ġex",
        "pl"
      ],
      [
        "ĠN",
        "ow"
      ],
      [
        "Ġgr",
        "ound"
      ],
      [
        "Ġter",
        "ror"
      ],
      [
        "ĠWil",
        "cox"
      ],
      [
        "fl",
        "u"
      ],
      [
        "Ġwalk",
        "ed"
      ],
      [
        "Ġpu",
        "blic"
      ],
      [
        "Ġdread",
        "ful"
      ],
      [
        "Ġmus",
        "ic"
      ],
      [
        "a",
        "ves"
      ],
      [
        "e",
        "ed"
      ],
      [
        "p",
        "ro"
      ],
      [
        "p",
        "art"
      ],
      [
        "s",
        "hip"
      ],
      [
        "u",
        "b"
      ],
      [
        "ou",
        "red"
      ],
      [
        "Ġb",
        "re"
      ],
      [
        "Ġf",
        "lo"
      ],
      [
        "Ġd",
        "im"
      ],
      [
        "ly",
        "nne"
      ],
      [
        "al",
        "es"
      ],
      [
        "Ġfor",
        "get"
      ],
      [
        "Ġan",
        "n"
      ],
      [
        "th",
        "ul"
      ],
      [
        "ast",
        "ic"
      ],
      [
        "Ã©",
        "s"
      ],
      [
        "OM",
        "Ãī"
      ],
      [
        "thul",
        "hu"
      ],
      [
        "U",
        "G"
      ],
      [
        "c",
        "han"
      ],
      [
        "p",
        "ri"
      ],
      [
        "s",
        "m"
      ],
      [
        "s",
        "p"
      ],
      [
        "s",
        "es"
      ],
      [
        "in",
        "ation"
      ],
      [
        "ve",
        "lo"
      ],
      [
        "id",
        "den"
      ],
      [
        "âĢľ",
        "âĢĺ"
      ],
      [
        "the",
        "y"
      ],
      [
        "Ġsu",
        "mm"
      ],
      [
        "Ġne",
        "ed"
      ],
      [
        "Ġqu",
        "estion"
      ],
      [
        "Ġal",
        "one"
      ],
      [
        "Ġcom",
        "p"
      ],
      [
        "Ġim",
        "m"
      ],
      [
        "ment",
        "s"
      ],
      [
        "Ġye",
        "ar"
      ],
      [
        "Ġart",
        "ist"
      ],
      [
        "gr",
        "asse"
      ],
      [
        "po",
        "ssible"
      ],
      [
        "US",
        "T"
      ],
      [
        "Ġhum",
        "an"
      ],
      [
        "Ġs",
        "imply"
      ],
      [
        "Ġm",
        "al"
      ],
      [
        "as",
        "k"
      ],
      [
        "ĠI",
        "nd"
      ],
      [
        "om",
        "en"
      ],
      [
        "ri",
        "bly"
      ],
      [
        "Ġas",
        "s"
      ],
      [
        "our",
        "s"
      ],
      [
        "Ġle",
        "arn"
      ],
      [
        "ag",
        "ed"
      ],
      [
        "Ġgr",
        "ass"
      ],
      [
        "Ġag",
        "o"
      ],
      [
        "Ġdre",
        "ss"
      ],
      [
        "ĠAr",
        "thur"
      ],
      [
        "Ġtre",
        "m"
      ],
      [
        "Ġmod",
        "ern"
      ],
      [
        "l",
        "ish"
      ],
      [
        "Ġd",
        "ied"
      ],
      [
        "at",
        "es"
      ],
      [
        "ĠH",
        "ans"
      ],
      [
        "ĠW",
        "or"
      ],
      [
        "are",
        "nt"
      ],
      [
        "Ġj",
        "oy"
      ],
      [
        "ag",
        "ue"
      ],
      [
        "ne",
        "y"
      ],
      [
        "Ġbr",
        "ing"
      ],
      [
        "pl",
        "ace"
      ],
      [
        "Ġrem",
        "ember"
      ],
      [
        "ĠCh",
        "rist"
      ],
      [
        "Ġhill",
        "s"
      ],
      [
        "ĠU",
        "n"
      ],
      [
        "SAL",
        "OMÃī"
      ],
      [
        "A",
        "r"
      ],
      [
        "A",
        "s"
      ],
      [
        "I",
        "AS"
      ],
      [
        "O",
        "LD"
      ],
      [
        "c",
        "ing"
      ],
      [
        "u",
        "nder"
      ],
      [
        "in",
        "ct"
      ],
      [
        "Ġs",
        "ight"
      ],
      [
        "Ġm",
        "ist"
      ],
      [
        "Ġc",
        "old"
      ],
      [
        "ĠI",
        "s"
      ],
      [
        "id",
        "er"
      ],
      [
        "ri",
        "age"
      ],
      [
        "ĠA",
        "UG"
      ],
      [
        "il",
        "st"
      ],
      [
        "Ġab",
        "ove"
      ],
      [
        "Ġle",
        "ast"
      ],
      [
        "Ġsha",
        "d"
      ],
      [
        "ock",
        "ed"
      ],
      [
        "HÃīROD",
        "IAS"
      ],
      [
        "UST",
        "US"
      ],
      [
        "ĠAUG",
        "USTUS"
      ],
      [
        "i",
        "ar"
      ],
      [
        "l",
        "er"
      ],
      [
        "s",
        "he"
      ],
      [
        "z",
        "z"
      ],
      [
        "Ġt",
        "imes"
      ],
      [
        "Ġb",
        "us"
      ],
      [
        "Ġc",
        "ase"
      ],
      [
        "on",
        "es"
      ],
      [
        "Ġl",
        "ay"
      ],
      [
        "ot",
        "t"
      ],
      [
        "Ġe",
        "ld"
      ],
      [
        "Ġe",
        "ither"
      ],
      [
        "ur",
        "y"
      ],
      [
        "ill",
        "er"
      ],
      [
        "Ġr",
        "an"
      ],
      [
        "ĠD",
        "o"
      ],
      [
        "ant",
        "s"
      ],
      [
        "ure",
        "s"
      ],
      [
        "Ã©",
        "e"
      ],
      [
        "Ġlook",
        "s"
      ],
      [
        "Ġcl",
        "oud"
      ],
      [
        "ash",
        "ion"
      ],
      [
        "O",
        "n"
      ],
      [
        "c",
        "ould"
      ],
      [
        "e",
        "very"
      ],
      [
        "er",
        "y"
      ],
      [
        "Ġb",
        "lo"
      ],
      [
        "Ġto",
        "p"
      ],
      [
        "ot",
        "s"
      ],
      [
        "ic",
        "ul"
      ],
      [
        "ĠS",
        "ir"
      ],
      [
        "Ġv",
        "ie"
      ],
      [
        "ĠG",
        "RA"
      ],
      [
        "ĠL",
        "ADY"
      ],
      [
        "est",
        "s"
      ],
      [
        "el",
        "ess"
      ],
      [
        "Ġman",
        "ner"
      ],
      [
        "ap",
        "pe"
      ],
      [
        "Ġchar",
        "ming"
      ],
      [
        "Ġbeaut",
        "y"
      ],
      [
        "ĠEr",
        "lynne"
      ],
      [
        "Ġsy",
        "m"
      ],
      [
        "ĠGRA",
        "HAM"
      ],
      [
        "f",
        "ort"
      ],
      [
        "g",
        "hed"
      ],
      [
        "i",
        "ence"
      ],
      [
        "o",
        "int"
      ],
      [
        "v",
        "ent"
      ],
      [
        "Ġ",
        "K"
      ],
      [
        "Ġs",
        "qu"
      ],
      [
        "it",
        "es"
      ],
      [
        "Ġc",
        "a"
      ],
      [
        "Ġd",
        "a"
      ],
      [
        "ter",
        "v"
      ],
      [
        "ĠH",
        "er"
      ],
      [
        "the",
        "ir"
      ],
      [
        "Ġli",
        "ves"
      ],
      [
        "Ġex",
        "am"
      ],
      [
        "itt",
        "ed"
      ],
      [
        "Ġgr",
        "ow"
      ],
      [
        "Ġcons",
        "cious"
      ],
      [
        "Ġcont",
        "in"
      ],
      [
        "Ġcha",
        "ir"
      ],
      [
        "ĠEng",
        "lish"
      ],
      [
        "Ġlau",
        "gh"
      ],
      [
        "ĠWor",
        "thing"
      ],
      [
        "c",
        "an"
      ],
      [
        "h",
        "ouse"
      ],
      [
        "i",
        "b"
      ],
      [
        "s",
        "pect"
      ],
      [
        "u",
        "ff"
      ],
      [
        "w",
        "allow"
      ],
      [
        "Ġ",
        "ir"
      ],
      [
        "Ġa",
        "ble"
      ],
      [
        "Ġs",
        "orrow"
      ],
      [
        "Ġb",
        "ig"
      ],
      [
        "en",
        "ess"
      ],
      [
        "Ġf",
        "our"
      ],
      [
        "Ġn",
        "one"
      ],
      [
        "ow",
        "ly"
      ],
      [
        "Ġg",
        "ent"
      ],
      [
        "im",
        "ent"
      ],
      [
        "Ġst",
        "ir"
      ],
      [
        "Ġst",
        "ud"
      ],
      [
        "Ġr",
        "un"
      ],
      [
        "ard",
        "s"
      ],
      [
        "Ġdo",
        "g"
      ],
      [
        "ci",
        "al"
      ],
      [
        "Ġen",
        "g"
      ],
      [
        "Ġper",
        "haps"
      ],
      [
        "Ġgre",
        "w"
      ],
      [
        "Ġansw",
        "er"
      ],
      [
        "Ġcle",
        "ar"
      ],
      [
        "ĠLe",
        "grasse"
      ],
      [
        "Ġflow",
        "ers"
      ],
      [
        "C",
        "HE"
      ],
      [
        "E",
        "x"
      ],
      [
        "L",
        "ord"
      ],
      [
        "p",
        "es"
      ],
      [
        "in",
        "n"
      ],
      [
        "Ġw",
        "he"
      ],
      [
        "Ġo",
        "ri"
      ],
      [
        "ou",
        "p"
      ],
      [
        "Ġb",
        "ed"
      ],
      [
        "Ġf",
        "le"
      ],
      [
        "Ġd",
        "ra"
      ],
      [
        "Ġto",
        "gether"
      ],
      [
        "as",
        "c"
      ],
      [
        "Ġn",
        "am"
      ],
      [
        "ce",
        "ed"
      ],
      [
        "ur",
        "d"
      ],
      [
        "Ġst",
        "ory"
      ],
      [
        "il",
        "ing"
      ],
      [
        "ĠM",
        "er"
      ],
      [
        "ĠM",
        "iller"
      ],
      [
        "ĠR",
        "e"
      ],
      [
        "Ġar",
        "ri"
      ],
      [
        "ĠJ",
        "ack"
      ],
      [
        "ab",
        "out"
      ],
      [
        "ertain",
        "ly"
      ],
      [
        "Ġwood",
        "s"
      ],
      [
        "Ġide",
        "a"
      ],
      [
        "atur",
        "al"
      ],
      [
        "ĠQ",
        "u"
      ],
      [
        "W",
        "hen"
      ],
      [
        "a",
        "ving"
      ],
      [
        "p",
        "ar"
      ],
      [
        "Ġ",
        "ed"
      ],
      [
        "Ġ",
        "ver"
      ],
      [
        "er",
        "al"
      ],
      [
        "Ġm",
        "a"
      ],
      [
        "Ġto",
        "wn"
      ],
      [
        "Ġl",
        "ost"
      ],
      [
        "Ġl",
        "ater"
      ],
      [
        "ve",
        "l"
      ],
      [
        "ic",
        "i"
      ],
      [
        "ic",
        "es"
      ],
      [
        "id",
        "ence"
      ],
      [
        "ri",
        "f"
      ],
      [
        "ri",
        "ll"
      ],
      [
        "ad",
        "ays"
      ],
      [
        "ac",
        "ed"
      ],
      [
        "il",
        "t"
      ],
      [
        "ĠS",
        "OLD"
      ],
      [
        "ra",
        "it"
      ],
      [
        "Ġsh",
        "owed"
      ],
      [
        "ist",
        "ed"
      ],
      [
        "Ġthem",
        "selves"
      ],
      [
        "Ġpr",
        "om"
      ],
      [
        "Ġdid",
        "n"
      ],
      [
        "Ġlong",
        "er"
      ],
      [
        "Ġtalk",
        "ed"
      ],
      [
        "fin",
        "ite"
      ],
      [
        "aught",
        "er"
      ],
      [
        "ĠSOLD",
        "AT"
      ],
      [
        "A",
        "fter"
      ],
      [
        "W",
        "ith"
      ],
      [
        "h",
        "ow"
      ],
      [
        "n",
        "oon"
      ],
      [
        "p",
        "he"
      ],
      [
        "Ġ",
        "ill"
      ],
      [
        "re",
        "en"
      ],
      [
        "Ġm",
        "ount"
      ],
      [
        "Ġc",
        "ir"
      ],
      [
        "ll",
        "e"
      ],
      [
        "ar",
        "m"
      ],
      [
        "Ġp",
        "ri"
      ],
      [
        "Ġp",
        "ie"
      ],
      [
        "Ġp",
        "ap"
      ],
      [
        "ow",
        "er"
      ],
      [
        "ve",
        "ll"
      ],
      [
        "ut",
        "ter"
      ],
      [
        "st",
        "airs"
      ],
      [
        "id",
        "ed"
      ],
      [
        "ir",
        "gin"
      ],
      [
        "ĠG",
        "wendolen"
      ],
      [
        "Ġsp",
        "ir"
      ],
      [
        "Ġafter",
        "noon"
      ],
      [
        "Ġfar",
        "m"
      ],
      [
        "Ġfan",
        "cy"
      ],
      [
        "Ġhard",
        "ly"
      ],
      [
        "Ġori",
        "gin"
      ],
      [
        "W",
        "I"
      ],
      [
        "b",
        "b"
      ],
      [
        "m",
        "en"
      ],
      [
        "t",
        "ime"
      ],
      [
        "w",
        "in"
      ],
      [
        "re",
        "m"
      ],
      [
        "Ġw",
        "all"
      ],
      [
        "Ġb",
        "ore"
      ],
      [
        "es",
        "ides"
      ],
      [
        "om",
        "s"
      ],
      [
        "Ġsu",
        "gg"
      ],
      [
        "Ġli",
        "ving"
      ],
      [
        "us",
        "cript"
      ],
      [
        "ĠO",
        "tis"
      ],
      [
        "Ġex",
        "per"
      ],
      [
        "Ġman",
        "uscript"
      ],
      [
        "ne",
        "ver"
      ],
      [
        "Ġpro",
        "fess"
      ],
      [
        "Ġpr",
        "in"
      ],
      [
        "Ġque",
        "er"
      ],
      [
        "ug",
        "ust"
      ],
      [
        "Ġentire",
        "ly"
      ],
      [
        "Ġflo",
        "or"
      ],
      [
        ",",
        "âĢĻ"
      ],
      [
        ".",
        "âĢĻ"
      ],
      [
        "L",
        "A"
      ],
      [
        "d",
        "o"
      ],
      [
        "g",
        "es"
      ],
      [
        "i",
        "ves"
      ],
      [
        "r",
        "ude"
      ],
      [
        "ha",
        "nd"
      ],
      [
        "Ġm",
        "oney"
      ],
      [
        "en",
        "g"
      ],
      [
        "Ġf",
        "re"
      ],
      [
        "Ġd",
        "uring"
      ],
      [
        "Ġha",
        "ir"
      ],
      [
        "il",
        "es"
      ],
      [
        "Ġse",
        "ver"
      ],
      [
        "ĠM",
        "ay"
      ],
      [
        "ĠB",
        "un"
      ],
      [
        "Ġdo",
        "ing"
      ],
      [
        "us",
        "h"
      ],
      [
        "Ġal",
        "so"
      ],
      [
        "Ġgo",
        "es"
      ],
      [
        "Ġpo",
        "ss"
      ],
      [
        "bl",
        "es"
      ],
      [
        "Ġsc",
        "ream"
      ],
      [
        "ang",
        "u"
      ],
      [
        "Ġsil",
        "ence"
      ],
      [
        "Ġev",
        "il"
      ],
      [
        "Ġfright",
        "ened"
      ],
      [
        "ĠAl",
        "gernon"
      ],
      [
        "look",
        "ing"
      ],
      [
        "Ġdiff",
        "erent"
      ],
      [
        "arg",
        "aret"
      ],
      [
        "Ġmur",
        "m"
      ],
      [
        "CHE",
        "SS"
      ],
      [
        "S",
        "t"
      ],
      [
        "c",
        "ent"
      ],
      [
        "c",
        "ap"
      ],
      [
        "d",
        "ress"
      ],
      [
        "i",
        "ved"
      ],
      [
        "p",
        "ered"
      ],
      [
        "r",
        "it"
      ],
      [
        "s",
        "it"
      ],
      [
        "t",
        "han"
      ],
      [
        "Ġt",
        "a"
      ],
      [
        "Ġt",
        "en"
      ],
      [
        "Ġt",
        "ried"
      ],
      [
        "Ġs",
        "it"
      ],
      [
        "Ġs",
        "ign"
      ],
      [
        "Ġs",
        "ix"
      ],
      [
        "Ġm",
        "ed"
      ],
      [
        "Ġl",
        "ady"
      ],
      [
        "Ġr",
        "id"
      ],
      [
        "Ġex",
        "p"
      ],
      [
        "ĠN",
        "ot"
      ],
      [
        "ert",
        "rude"
      ],
      [
        "ran",
        "g"
      ],
      [
        "Ġpr",
        "ison"
      ],
      [
        "iz",
        "e"
      ],
      [
        "Ġhapp",
        "y"
      ],
      [
        "Ġchild",
        "ren"
      ],
      [
        "Ġswe",
        "et"
      ],
      [
        "Ġsle",
        "ep"
      ],
      [
        "WI",
        "CK"
      ],
      [
        "H",
        "I"
      ],
      [
        "M",
        "BY"
      ],
      [
        "T",
        "h"
      ],
      [
        "h",
        "ost"
      ],
      [
        "i",
        "us"
      ],
      [
        "r",
        "ough"
      ],
      [
        "Ġf",
        "ant"
      ],
      [
        "Ġd",
        "are"
      ],
      [
        "ar",
        "l"
      ],
      [
        "Ġy",
        "ellow"
      ],
      [
        "ut",
        "es"
      ],
      [
        "ER",
        "WICK"
      ],
      [
        "am",
        "m"
      ],
      [
        "ul",
        "pt"
      ],
      [
        "ĠB",
        "ERWICK"
      ],
      [
        "Ġli",
        "ved"
      ],
      [
        "Ġpo",
        "ison"
      ],
      [
        "Ġtr",
        "uth"
      ],
      [
        "Ġad",
        "v"
      ],
      [
        "Ġlo",
        "ved"
      ],
      [
        "Ġhat",
        "e"
      ],
      [
        "Ġcomple",
        "te"
      ],
      [
        "arr",
        "ow"
      ],
      [
        "Ġcel",
        "a"
      ],
      [
        "Ġgent",
        "le"
      ],
      [
        "b",
        "s"
      ],
      [
        "l",
        "ife"
      ],
      [
        "u",
        "ed"
      ],
      [
        "v",
        "o"
      ],
      [
        "Ġa",
        "ve"
      ],
      [
        "Ġc",
        "orn"
      ],
      [
        "Ġd",
        "raw"
      ],
      [
        "Ġg",
        "lo"
      ],
      [
        "et",
        "te"
      ],
      [
        "Ġre",
        "ached"
      ],
      [
        "Ġde",
        "m"
      ],
      [
        "ĠM",
        "argaret"
      ],
      [
        "ge",
        "ll"
      ],
      [
        "ĠS",
        "wallow"
      ],
      [
        "Ġv",
        "ague"
      ],
      [
        "Ġyour",
        "self"
      ],
      [
        "Ġbl",
        "ood"
      ],
      [
        "ĠV",
        "ane"
      ],
      [
        "Ġspe",
        "ct"
      ],
      [
        "Ġwr",
        "ite"
      ],
      [
        "Ġke",
        "pt"
      ],
      [
        "ĠEng",
        "land"
      ],
      [
        "Ġfoll",
        "owed"
      ],
      [
        "PP",
        "S"
      ],
      [
        "Ġmonth",
        "s"
      ],
      [
        "Ġsever",
        "al"
      ],
      [
        "HI",
        "PPS"
      ],
      [
        "T",
        "ER"
      ],
      [
        "e",
        "br"
      ],
      [
        "i",
        "bly"
      ],
      [
        "l",
        "ittle"
      ],
      [
        "m",
        "orrow"
      ],
      [
        "s",
        "uch"
      ],
      [
        "in",
        "to"
      ],
      [
        "in",
        "ner"
      ],
      [
        "Ġs",
        "im"
      ],
      [
        "Ġs",
        "erv"
      ],
      [
        "Ġb",
        "as"
      ],
      [
        "Ġb",
        "ur"
      ],
      [
        "Ġb",
        "ird"
      ],
      [
        "on",
        "y"
      ],
      [
        "Ġd",
        "ie"
      ],
      [
        "an",
        "a"
      ],
      [
        "Ġhe",
        "aven"
      ],
      [
        "ic",
        "ally"
      ],
      [
        "ir",
        "t"
      ],
      [
        "Ġde",
        "al"
      ],
      [
        "Ġqu",
        "ar"
      ],
      [
        "Ġex",
        "pect"
      ],
      [
        "Ġpo",
        "ssible"
      ],
      [
        "ud",
        "d"
      ],
      [
        "ick",
        "ed"
      ],
      [
        "Ġgl",
        "ass"
      ],
      [
        "Ġbeg",
        "in"
      ],
      [
        "ock",
        "et"
      ],
      [
        "ĠOn",
        "es"
      ],
      [
        "Ġchan",
        "ce"
      ],
      [
        "Ġchan",
        "ge"
      ],
      [
        "Ã¨",
        "s"
      ],
      [
        "Ġstr",
        "ong"
      ],
      [
        "Ġtra",
        "ged"
      ],
      [
        "cons",
        "cious"
      ],
      [
        "Ġpret",
        "ty"
      ],
      [
        "flu",
        "ence"
      ],
      [
        "irgin",
        "ia"
      ],
      [
        "A",
        "h"
      ],
      [
        "a",
        "fter"
      ],
      [
        "c",
        "ha"
      ],
      [
        "d",
        "es"
      ],
      [
        "p",
        "ast"
      ],
      [
        "r",
        "act"
      ],
      [
        "t",
        "es"
      ],
      [
        "x",
        "ious"
      ],
      [
        "Ġc",
        "ond"
      ],
      [
        "Ġf",
        "ait"
      ],
      [
        "al",
        "ed"
      ],
      [
        "id",
        "ly"
      ],
      [
        "ri",
        "es"
      ],
      [
        "Ġwh",
        "ilst"
      ],
      [
        "Ġst",
        "re"
      ],
      [
        "ĠA",
        "ugust"
      ],
      [
        "Ġwith",
        "in"
      ],
      [
        "ill",
        "y"
      ],
      [
        "ĠG",
        "ard"
      ],
      [
        "Ġmy",
        "ster"
      ],
      [
        "Ġne",
        "arly"
      ],
      [
        "Ġal",
        "ong"
      ],
      [
        "itt",
        "en"
      ],
      [
        "Ġpro",
        "du"
      ],
      [
        "Ġdes",
        "cri"
      ],
      [
        "Ġtalk",
        "ing"
      ],
      [
        "Ġke",
        "y"
      ],
      [
        "Ġsil",
        "ver"
      ],
      [
        "Ġpain",
        "ter"
      ],
      [
        "Ġsing",
        "le"
      ],
      [
        "n",
        "ell"
      ],
      [
        "r",
        "al"
      ],
      [
        "w",
        "hen"
      ],
      [
        "z",
        "e"
      ],
      [
        "Ġs",
        "ad"
      ],
      [
        "re",
        "ady"
      ],
      [
        "it",
        "ual"
      ],
      [
        "Ġm",
        "ort"
      ],
      [
        "en",
        "as"
      ],
      [
        "Ġd",
        "an"
      ],
      [
        "om",
        "Ã©"
      ],
      [
        "ot",
        "es"
      ],
      [
        "ic",
        "ed"
      ],
      [
        "al",
        "omÃ©"
      ],
      [
        "ĠA",
        "fter"
      ],
      [
        "Ġnot",
        "e"
      ],
      [
        "il",
        "ity"
      ],
      [
        "the",
        "m"
      ],
      [
        "ĠS",
        "ome"
      ],
      [
        "um",
        "e"
      ],
      [
        "ack",
        "nell"
      ],
      [
        "ag",
        "es"
      ],
      [
        "ian",
        "s"
      ],
      [
        "of",
        "f"
      ],
      [
        "Ġsp",
        "ot"
      ],
      [
        "me",
        "ly"
      ],
      [
        "ces",
        "se"
      ],
      [
        "Ġop",
        "ened"
      ],
      [
        "MI",
        "ER"
      ],
      [
        "ĠBr",
        "acknell"
      ],
      [
        "RE",
        "MIER"
      ],
      [
        "ĠZ",
        "enas"
      ],
      [
        "ĠBun",
        "bury"
      ],
      [
        "Ġmurm",
        "ured"
      ],
      [
        "c",
        "ol"
      ],
      [
        "d",
        "ream"
      ],
      [
        "f",
        "ound"
      ],
      [
        "h",
        "or"
      ],
      [
        "p",
        "ass"
      ],
      [
        "y",
        "our"
      ],
      [
        "Ġt",
        "u"
      ],
      [
        "Ġt",
        "ale"
      ],
      [
        "Ġw",
        "in"
      ],
      [
        "Ġm",
        "ot"
      ],
      [
        "Ġm",
        "aking"
      ],
      [
        "Ġb",
        "ene"
      ],
      [
        "Ġf",
        "ut"
      ],
      [
        "Ġf",
        "ive"
      ],
      [
        "as",
        "hed"
      ],
      [
        "ut",
        "tered"
      ],
      [
        "Ġse",
        "nd"
      ],
      [
        "Ġv",
        "ar"
      ],
      [
        "pe",
        "nd"
      ],
      [
        "our",
        "t"
      ],
      [
        "Ġsh",
        "ook"
      ],
      [
        "ĠN",
        "ew"
      ],
      [
        "ci",
        "ence"
      ],
      [
        "Ġsome",
        "what"
      ],
      [
        "ive",
        "ly"
      ],
      [
        "Ġwor",
        "th"
      ],
      [
        "ran",
        "s"
      ],
      [
        "Ġim",
        "age"
      ],
      [
        "Ġsc",
        "ar"
      ],
      [
        "ick",
        "ly"
      ],
      [
        "by",
        "e"
      ],
      [
        "Ġrem",
        "ark"
      ],
      [
        "Ġchar",
        "ac"
      ],
      [
        "ang",
        "er"
      ],
      [
        "com",
        "p"
      ],
      [
        "tre",
        "et"
      ],
      [
        "Ġwait",
        "ing"
      ],
      [
        "Ġtrou",
        "ble"
      ],
      [
        "DU",
        "CHESS"
      ],
      [
        "ĠDu",
        "chess"
      ],
      [
        "Ġdelight",
        "ful"
      ],
      [
        "Ġbit",
        "ter"
      ],
      [
        "Ġvie",
        "w"
      ],
      [
        "A",
        "C"
      ],
      [
        "T",
        "his"
      ],
      [
        "c",
        "her"
      ],
      [
        "k",
        "ing"
      ],
      [
        "Ġb",
        "ien"
      ],
      [
        "Ġf",
        "ur"
      ],
      [
        "Ġl",
        "ed"
      ],
      [
        "ar",
        "ing"
      ],
      [
        "Ġp",
        "ale"
      ],
      [
        "Ġth",
        "orough"
      ],
      [
        "ĠW",
        "ith"
      ],
      [
        "and",
        "s"
      ],
      [
        "all",
        "ey"
      ],
      [
        "Ġr",
        "ust"
      ],
      [
        "ĠG",
        "ertrude"
      ],
      [
        "Ġher",
        "self"
      ],
      [
        "em",
        "pt"
      ],
      [
        "ĠO",
        "r"
      ],
      [
        "Ġor",
        "d"
      ],
      [
        "ĠP",
        "ar"
      ],
      [
        "ĠR",
        "ocket"
      ],
      [
        "ĠE",
        "very"
      ],
      [
        "Ġgr",
        "oup"
      ],
      [
        "Ġsay",
        "ing"
      ],
      [
        "Ġbl",
        "ue"
      ],
      [
        "be",
        "en"
      ],
      [
        "os",
        "op"
      ],
      [
        "Ġent",
        "ered"
      ],
      [
        "Ġte",
        "a"
      ],
      [
        "Ġhor",
        "se"
      ],
      [
        "mer",
        "ic"
      ],
      [
        "Ġsl",
        "owly"
      ],
      [
        "ok",
        "ana"
      ],
      [
        "clo",
        "ck"
      ],
      [
        "ARK",
        "ER"
      ],
      [
        "Ġbes",
        "ide"
      ],
      [
        "Ġwhis",
        "pered"
      ],
      [
        "Ġext",
        "ra"
      ],
      [
        "Ġslight",
        "ly"
      ],
      [
        "okana",
        "an"
      ],
      [
        "a",
        "im"
      ],
      [
        "c",
        "ome"
      ],
      [
        "e",
        "ge"
      ],
      [
        "f",
        "am"
      ],
      [
        "s",
        "omething"
      ],
      [
        "u",
        "ct"
      ],
      [
        "Ġt",
        "y"
      ],
      [
        "ha",
        "s"
      ],
      [
        "it",
        "er"
      ],
      [
        "Ġm",
        "id"
      ],
      [
        "Ġm",
        "ove"
      ],
      [
        "Ġm",
        "ine"
      ],
      [
        "Ġm",
        "oi"
      ],
      [
        "Ġb",
        "urn"
      ],
      [
        "Ġf",
        "ine"
      ],
      [
        "Ġd",
        "om"
      ],
      [
        "Ġl",
        "um"
      ],
      [
        "Ġh",
        "ig"
      ],
      [
        "at",
        "ic"
      ],
      [
        "Ġhe",
        "ld"
      ],
      [
        "ow",
        "d"
      ],
      [
        "al",
        "m"
      ],
      [
        "am",
        "b"
      ],
      [
        "ĠC",
        "ha"
      ],
      [
        "Ġse",
        "lf"
      ],
      [
        "Ġse",
        "ven"
      ],
      [
        "the",
        "n"
      ],
      [
        "ĠM",
        "ais"
      ],
      [
        "ĠM",
        "arch"
      ],
      [
        "Ġso",
        "ciety"
      ],
      [
        "ell",
        "e"
      ],
      [
        "ĠL",
        "et"
      ],
      [
        "pp",
        "ing"
      ],
      [
        "pp",
        "oor"
      ],
      [
        "Ġsh",
        "ort"
      ],
      [
        "Ġun",
        "t"
      ],
      [
        "Ġnow",
        "adays"
      ],
      [
        "int",
        "s"
      ],
      [
        "sh",
        "ould"
      ],
      [
        "Ġmet",
        "eor"
      ],
      [
        "Ġbro",
        "ken"
      ],
      [
        "Ġfell",
        "ow"
      ],
      [
        "Ġaw",
        "ful"
      ],
      [
        "will",
        "s"
      ],
      [
        "pri",
        "l"
      ],
      [
        "ppoor",
        "wills"
      ],
      [
        "G",
        "oes"
      ],
      [
        "b",
        "id"
      ],
      [
        "c",
        "har"
      ],
      [
        "c",
        "ount"
      ],
      [
        "g",
        "reat"
      ],
      [
        "k",
        "es"
      ],
      [
        "m",
        "ust"
      ],
      [
        "w",
        "o"
      ],
      [
        "w",
        "hi"
      ],
      [
        "Ġ",
        "er"
      ],
      [
        "Ġf",
        "ail"
      ],
      [
        "Ġf",
        "ool"
      ],
      [
        "Ġf",
        "asc"
      ],
      [
        "Ġh",
        "ur"
      ],
      [
        "at",
        "s"
      ],
      [
        "Ġst",
        "o"
      ],
      [
        "Ġst",
        "orm"
      ],
      [
        "Ġan",
        "g"
      ],
      [
        "all",
        "ed"
      ],
      [
        "Ġde",
        "velo"
      ],
      [
        "ĠM",
        "ARK"
      ],
      [
        "Ġk",
        "iss"
      ],
      [
        "ĠD",
        "arling"
      ],
      [
        "Ġdes",
        "p"
      ],
      [
        "Ã¨",
        "re"
      ],
      [
        "Ġob",
        "ject"
      ],
      [
        "Ġve",
        "get"
      ],
      [
        "Ġgra",
        "ve"
      ],
      [
        "Ġimp",
        "ort"
      ],
      [
        "Ġlau",
        "ghed"
      ],
      [
        "Ġbook",
        "s"
      ],
      [
        "DU",
        "MBY"
      ],
      [
        "ĠMARK",
        "BY"
      ],
      [
        "N",
        "o"
      ],
      [
        "P",
        "TER"
      ],
      [
        "R",
        "ising"
      ],
      [
        "g",
        "ar"
      ],
      [
        "s",
        "k"
      ],
      [
        "t",
        "le"
      ],
      [
        "Ġs",
        "ont"
      ],
      [
        "it",
        "ive"
      ],
      [
        "Ġc",
        "ig"
      ],
      [
        "Ġc",
        "op"
      ],
      [
        "Ġf",
        "ol"
      ],
      [
        "Ġl",
        "ord"
      ],
      [
        "as",
        "y"
      ],
      [
        "Ġy",
        "es"
      ],
      [
        "se",
        "em"
      ],
      [
        "ad",
        "ed"
      ],
      [
        "ĠA",
        "meric"
      ],
      [
        "qu",
        "is"
      ],
      [
        "ĠThe",
        "ir"
      ],
      [
        "ous",
        "es"
      ],
      [
        "Ġso",
        "fa"
      ],
      [
        "Ġv",
        "al"
      ],
      [
        "Ġk",
        "ill"
      ],
      [
        "Ġall",
        "ow"
      ],
      [
        "ĠB",
        "esides"
      ],
      [
        "um",
        "bled"
      ],
      [
        "Ġex",
        "tre"
      ],
      [
        "ie",
        "u"
      ],
      [
        "ag",
        "n"
      ],
      [
        "Ġsp",
        "ring"
      ],
      [
        "Ġsha",
        "pe"
      ],
      [
        "ON",
        "T"
      ],
      [
        "os",
        "ity"
      ],
      [
        "ret",
        "ched"
      ],
      [
        "ĠV",
        "ous"
      ],
      [
        "Ġboy",
        "s"
      ],
      [
        "Ġchan",
        "ged"
      ],
      [
        "Ġabs",
        "urd"
      ],
      [
        "att",
        "le"
      ],
      [
        "Ġapp",
        "ro"
      ],
      [
        "Ġtou",
        "ch"
      ],
      [
        "ĠAn",
        "gell"
      ],
      [
        "MI",
        "SS"
      ],
      [
        "Ġstart",
        "ed"
      ],
      [
        "CHA",
        "PTER"
      ],
      [
        "Ġ19",
        "2"
      ],
      [
        "Ġshad",
        "ow"
      ],
      [
        "W",
        "hy"
      ],
      [
        "d",
        "on"
      ],
      [
        "d",
        "ark"
      ],
      [
        "i",
        "o"
      ],
      [
        "n",
        "orm"
      ],
      [
        "t",
        "s"
      ],
      [
        "u",
        "it"
      ],
      [
        "u",
        "le"
      ],
      [
        "Ġt",
        "out"
      ],
      [
        "Ġt",
        "aking"
      ],
      [
        "Ġt",
        "ales"
      ],
      [
        "Ġf",
        "ast"
      ],
      [
        "Ġf",
        "ield"
      ],
      [
        "Ġl",
        "ine"
      ],
      [
        "Ġl",
        "ying"
      ],
      [
        "Ġp",
        "our"
      ],
      [
        "ve",
        "re"
      ],
      [
        "Ġre",
        "ce"
      ],
      [
        "ro",
        "s"
      ],
      [
        "ain",
        "ing"
      ],
      [
        "ĠM",
        "is"
      ],
      [
        "Ġso",
        "l"
      ],
      [
        "Ġv",
        "an"
      ],
      [
        "Ġfr",
        "ag"
      ],
      [
        "Ġex",
        "act"
      ],
      [
        "Ġal",
        "ready"
      ],
      [
        "ci",
        "ally"
      ],
      [
        "ĠE",
        "ven"
      ],
      [
        "ort",
        "ed"
      ],
      [
        "Ġsha",
        "me"
      ],
      [
        "ĠF",
        "rom"
      ],
      [
        "Ġim",
        "possible"
      ],
      [
        "Ġint",
        "ell"
      ],
      [
        "Ġmoment",
        "s"
      ],
      [
        "br",
        "ary"
      ],
      [
        "ug",
        "g"
      ],
      [
        "Ġfeel",
        "ing"
      ],
      [
        "ĠPr",
        "ism"
      ],
      [
        "Ġappe",
        "ar"
      ],
      [
        "Ġimag",
        "ination"
      ],
      [
        "Ġrom",
        "antic"
      ],
      [
        "Ġbus",
        "iness"
      ],
      [
        "otes",
        "que"
      ],
      [
        "i",
        "as"
      ],
      [
        "u",
        "ary"
      ],
      [
        "Ġs",
        "ch"
      ],
      [
        "Ġm",
        "er"
      ],
      [
        "Ġb",
        "arn"
      ],
      [
        "Ġf",
        "al"
      ],
      [
        "Ġl",
        "ing"
      ],
      [
        "Ġh",
        "on"
      ],
      [
        "Ġh",
        "idden"
      ],
      [
        "om",
        "an"
      ],
      [
        "Ġre",
        "ady"
      ],
      [
        "Ġse",
        "a"
      ],
      [
        "ĠS",
        "alomÃ©"
      ],
      [
        "Ġso",
        "ld"
      ],
      [
        "Ġv",
        "alley"
      ],
      [
        "ard",
        "ed"
      ],
      [
        "ra",
        "ge"
      ],
      [
        "ĠY",
        "our"
      ],
      [
        "Ġor",
        "der"
      ],
      [
        "Ġex",
        "pression"
      ],
      [
        "ĠN",
        "ight"
      ],
      [
        "Ġtr",
        "Ã¨s"
      ],
      [
        "Ġac",
        "cept"
      ],
      [
        "not",
        "hing"
      ],
      [
        "ĠV",
        "irginia"
      ],
      [
        "og",
        "n"
      ],
      [
        "Ġres",
        "ult"
      ],
      [
        "Ġacc",
        "ount"
      ],
      [
        "RI",
        "S"
      ],
      [
        "ĠCan",
        "terv"
      ],
      [
        "Ġeld",
        "er"
      ],
      [
        "ĠMer",
        "win"
      ],
      [
        "Ġbene",
        "ath"
      ],
      [
        "Ġextre",
        "mely"
      ],
      [
        "a",
        "pe"
      ],
      [
        "e",
        "ar"
      ],
      [
        "f",
        "ace"
      ],
      [
        "f",
        "ather"
      ],
      [
        "k",
        "ind"
      ],
      [
        "o",
        "ver"
      ],
      [
        "r",
        "ase"
      ],
      [
        "s",
        "ing"
      ],
      [
        "Ġw",
        "ings"
      ],
      [
        "Ġm",
        "iss"
      ],
      [
        "Ġb",
        "ar"
      ],
      [
        "Ġb",
        "reat"
      ],
      [
        "Ġf",
        "ree"
      ],
      [
        "Ġf",
        "illed"
      ],
      [
        "Ġd",
        "it"
      ],
      [
        "Ġp",
        "ause"
      ],
      [
        "Ġn",
        "on"
      ],
      [
        "se",
        "m"
      ],
      [
        "Ġis",
        "n"
      ],
      [
        "Ġu",
        "nd"
      ],
      [
        "Ġfor",
        "ce"
      ],
      [
        "Ġst",
        "at"
      ],
      [
        "Ġst",
        "ate"
      ],
      [
        "Ġst",
        "ick"
      ],
      [
        "Ġnot",
        "es"
      ],
      [
        "am",
        "es"
      ],
      [
        "Ġde",
        "li"
      ],
      [
        "ct",
        "or"
      ],
      [
        "Ġfr",
        "antic"
      ],
      [
        "ord",
        "inary"
      ],
      [
        "ast",
        "ed"
      ],
      [
        "ish",
        "op"
      ],
      [
        "os",
        "es"
      ],
      [
        "Ġtell",
        "ing"
      ],
      [
        "Ġla",
        "w"
      ],
      [
        "Ġsm",
        "ile"
      ],
      [
        "pre",
        "sent"
      ],
      [
        "ater",
        "ial"
      ],
      [
        "Ġte",
        "ars"
      ],
      [
        "Ġsur",
        "v"
      ],
      [
        "Ġwat",
        "ch"
      ],
      [
        "Ġpol",
        "ice"
      ],
      [
        "Ġid",
        "ol"
      ],
      [
        "Ġmin",
        "utes"
      ],
      [
        "Ġmention",
[...]
